const unsigned char model[] = {
  0x1c, 0x00, 0x00, 0x00, 0x54, 0x46, 0x4c, 0x33, 0x14, 0x00, 0x20, 0x00,
  0x1c, 0x00, 0x18, 0x00, 0x14, 0x00, 0x10, 0x00, 0x0c, 0x00, 0x00, 0x00,
  0x08, 0x00, 0x04, 0x00, 0x14, 0x00, 0x00, 0x00, 0x1c, 0x00, 0x00, 0x00,
  0x98, 0x00, 0x00, 0x00, 0xf0, 0x00, 0x00, 0x00, 0xd0, 0x06, 0x00, 0x00,
  0xe0, 0x06, 0x00, 0x00, 0x80, 0x0c, 0x00, 0x00, 0x03, 0x00, 0x00, 0x00,
  0x01, 0x00, 0x00, 0x00, 0x10, 0x00, 0x00, 0x00, 0x00, 0x00, 0x0a, 0x00,
  0x10, 0x00, 0x0c, 0x00, 0x08, 0x00, 0x04, 0x00, 0x0a, 0x00, 0x00, 0x00,
  0x0c, 0x00, 0x00, 0x00, 0x1c, 0x00, 0x00, 0x00, 0x3c, 0x00, 0x00, 0x00,
  0x0f, 0x00, 0x00, 0x00, 0x73, 0x65, 0x72, 0x76, 0x69, 0x6e, 0x67, 0x5f,
  0x64, 0x65, 0x66, 0x61, 0x75, 0x6c, 0x74, 0x00, 0x01, 0x00, 0x00, 0x00,
  0x04, 0x00, 0x00, 0x00, 0x90, 0xff, 0xff, 0xff, 0x0a, 0x00, 0x00, 0x00,
  0x04, 0x00, 0x00, 0x00, 0x08, 0x00, 0x00, 0x00, 0x6f, 0x75, 0x74, 0x70,
  0x75, 0x74, 0x5f, 0x30, 0x00, 0x00, 0x00, 0x00, 0x01, 0x00, 0x00, 0x00,
  0x04, 0x00, 0x00, 0x00, 0x16, 0xf9, 0xff, 0xff, 0x04, 0x00, 0x00, 0x00,
  0x0c, 0x00, 0x00, 0x00, 0x6b, 0x65, 0x72, 0x61, 0x73, 0x5f, 0x74, 0x65,
  0x6e, 0x73, 0x6f, 0x72, 0x00, 0x00, 0x00, 0x00, 0x02, 0x00, 0x00, 0x00,
  0x34, 0x00, 0x00, 0x00, 0x04, 0x00, 0x00, 0x00, 0xdc, 0xff, 0xff, 0xff,
  0x0d, 0x00, 0x00, 0x00, 0x04, 0x00, 0x00, 0x00, 0x13, 0x00, 0x00, 0x00,
  0x43, 0x4f, 0x4e, 0x56, 0x45, 0x52, 0x53, 0x49, 0x4f, 0x4e, 0x5f, 0x4d,
  0x45, 0x54, 0x41, 0x44, 0x41, 0x54, 0x41, 0x00, 0x08, 0x00, 0x0c, 0x00,
  0x08, 0x00, 0x04, 0x00, 0x08, 0x00, 0x00, 0x00, 0x0c, 0x00, 0x00, 0x00,
  0x04, 0x00, 0x00, 0x00, 0x13, 0x00, 0x00, 0x00, 0x6d, 0x69, 0x6e, 0x5f,
  0x72, 0x75, 0x6e, 0x74, 0x69, 0x6d, 0x65, 0x5f, 0x76, 0x65, 0x72, 0x73,
  0x69, 0x6f, 0x6e, 0x00, 0x0e, 0x00, 0x00, 0x00, 0xdc, 0x05, 0x00, 0x00,
  0xd4, 0x05, 0x00, 0x00, 0xb4, 0x05, 0x00, 0x00, 0x94, 0x05, 0x00, 0x00,
  0x44, 0x05, 0x00, 0x00, 0xb4, 0x04, 0x00, 0x00, 0xe4, 0x00, 0x00, 0x00,
  0xb4, 0x00, 0x00, 0x00, 0xac, 0x00, 0x00, 0x00, 0xa4, 0x00, 0x00, 0x00,
  0x9c, 0x00, 0x00, 0x00, 0x94, 0x00, 0x00, 0x00, 0x74, 0x00, 0x00, 0x00,
  0x04, 0x00, 0x00, 0x00, 0xca, 0xf9, 0xff, 0xff, 0x04, 0x00, 0x00, 0x00,
  0x60, 0x00, 0x00, 0x00, 0x10, 0x00, 0x00, 0x00, 0x00, 0x00, 0x00, 0x00,
  0x08, 0x00, 0x0e, 0x00, 0x08, 0x00, 0x04, 0x00, 0x08, 0x00, 0x00, 0x00,
  0x10, 0x00, 0x00, 0x00, 0x24, 0x00, 0x00, 0x00, 0x00, 0x00, 0x06, 0x00,
  0x08, 0x00, 0x04, 0x00, 0x06, 0x00, 0x00, 0x00, 0x04, 0x00, 0x00, 0x00,
  0x00, 0x00, 0x00, 0x00, 0x0c, 0x00, 0x18, 0x00, 0x14, 0x00, 0x10, 0x00,
  0x0c, 0x00, 0x04, 0x00, 0x0c, 0x00, 0x00, 0x00, 0x77, 0x78, 0x46, 0x74,
  0x92, 0xbe, 0x55, 0x63, 0x02, 0x00, 0x00, 0x00, 0x02, 0x00, 0x00, 0x00,
  0x04, 0x00, 0x00, 0x00, 0x06, 0x00, 0x00, 0x00, 0x32, 0x2e, 0x32, 0x30,
  0x2e, 0x30, 0x00, 0x00, 0x36, 0xfa, 0xff, 0xff, 0x04, 0x00, 0x00, 0x00,
  0x10, 0x00, 0x00, 0x00, 0x31, 0x2e, 0x35, 0x2e, 0x30, 0x00, 0x00, 0x00,
  0x00, 0x00, 0x00, 0x00, 0x00, 0x00, 0x00, 0x00, 0x60, 0xf5, 0xff, 0xff,
  0x64, 0xf5, 0xff, 0xff, 0x68, 0xf5, 0xff, 0xff, 0x6c, 0xf5, 0xff, 0xff,
  0x62, 0xfa, 0xff, 0xff, 0x04, 0x00, 0x00, 0x00, 0x20, 0x00, 0x00, 0x00,
  0xd9, 0xac, 0x8e, 0x3e, 0x09, 0xba, 0xab, 0x3e, 0x2c, 0x04, 0xb4, 0x3d,
  0x02, 0x39, 0x2a, 0xbc, 0x4b, 0xc7, 0xb1, 0x3e, 0x18, 0x88, 0x07, 0x3e,
  0xd1, 0xd5, 0x3b, 0x3d, 0x37, 0xf3, 0xd1, 0xbc, 0x8e, 0xfa, 0xff, 0xff,
  0x04, 0x00, 0x00, 0x00, 0xc0, 0x03, 0x00, 0x00, 0x91, 0x25, 0x64, 0xbe,
  0x68, 0xb7, 0xae, 0xbd, 0x91, 0xc5, 0xc8, 0xbe, 0x66, 0xdd, 0xb4, 0xbe,
  0xc6, 0xce, 0xab, 0xbe, 0x49, 0x69, 0x84, 0xbd, 0x37, 0xec, 0x9b, 0xbc,
  0x59, 0xf5, 0x36, 0xbe, 0x01, 0xa6, 0x0f, 0xbe, 0xac, 0x1e, 0xbb, 0xbe,
  0x63, 0xce, 0xe8, 0x3d, 0x6c, 0x96, 0x2d, 0xbf, 0xaa, 0xe5, 0xf4, 0xbe,
  0xdd, 0x1c, 0x19, 0x3b, 0x00, 0x59, 0x2d, 0xbf, 0x3e, 0x2d, 0x51, 0x3e,
  0xe2, 0x22, 0x5d, 0xbe, 0x2b, 0x20, 0xc2, 0xbd, 0x68, 0xc9, 0x65, 0xbe,
  0xd1, 0xd2, 0x41, 0x3c, 0x50, 0xec, 0x0e, 0xbf, 0xb7, 0x5f, 0x55, 0xbe,
  0x21, 0x1d, 0xa3, 0xbc, 0xb7, 0x32, 0x4c, 0xbe, 0x10, 0x38, 0x9d, 0x3d,
  0xc8, 0x97, 0x1a, 0xbd, 0x7e, 0x12, 0x28, 0xbe, 0x2c, 0x3e, 0x49, 0xbd,
  0x82, 0xb7, 0xb1, 0xbd, 0xbe, 0x93, 0xb4, 0xbe, 0xcf, 0x4e, 0x03, 0x3e,
  0xc2, 0xa7, 0x02, 0x3e, 0x95, 0xda, 0x99, 0xbe, 0xa3, 0x84, 0xae, 0x3d,
  0x9d, 0x84, 0xa6, 0x3e, 0x25, 0xde, 0x36, 0xbf, 0x4f, 0x0b, 0x45, 0x3e,
  0x85, 0x31, 0x53, 0xbe, 0x73, 0x90, 0x07, 0xbf, 0xea, 0xe3, 0x27, 0x3e,
  0x9e, 0xca, 0x6a, 0x3d, 0x5a, 0x11, 0x68, 0xbe, 0x8d, 0x17, 0xbc, 0xbe,
  0x72, 0x94, 0x94, 0xbc, 0x13, 0x5e, 0x26, 0xbf, 0x77, 0x34, 0xbd, 0xbe,
  0xef, 0x88, 0x80, 0x3e, 0x94, 0x44, 0xd7, 0xbd, 0xb3, 0x62, 0x26, 0xbe,
  0x75, 0x3f, 0xdb, 0xbd, 0xbd, 0xec, 0x6c, 0xbe, 0x34, 0xcd, 0xa2, 0xbe,
  0x7d, 0xe3, 0xef, 0x3d, 0xb4, 0x68, 0x82, 0xbe, 0xa0, 0xe0, 0xf5, 0xbe,
  0xe2, 0x43, 0x75, 0x3e, 0xb5, 0x5c, 0x34, 0xbf, 0xcb, 0x62, 0xd6, 0xbe,
  0x8b, 0xa4, 0x72, 0xbe, 0xe6, 0xb6, 0x4c, 0xbe, 0xfd, 0xd7, 0xa1, 0x3e,
  0x14, 0x30, 0x36, 0x3e, 0x17, 0x6b, 0xa9, 0xbe, 0x6b, 0x6f, 0x95, 0x3e,
  0xab, 0x0a, 0xba, 0xbe, 0xdd, 0x4b, 0xc3, 0xbe, 0x91, 0x36, 0xf9, 0xbd,
  0xb3, 0x95, 0x59, 0xbe, 0xc5, 0x2e, 0x1c, 0xbe, 0x55, 0x91, 0x20, 0x3e,
  0xec, 0x58, 0x13, 0xbf, 0xb1, 0x26, 0xee, 0xbd, 0x11, 0x00, 0x77, 0xbe,
  0x8d, 0xda, 0x9e, 0xbe, 0xb5, 0x5a, 0x68, 0xbe, 0x74, 0x90, 0x74, 0xbe,
  0xf2, 0x64, 0x03, 0xbf, 0x73, 0xa4, 0x07, 0x3e, 0xc7, 0xec, 0x84, 0x3e,
  0xdd, 0x7c, 0x8b, 0xbe, 0x42, 0x23, 0x59, 0xbe, 0x8d, 0x80, 0x87, 0x3e,
  0xf9, 0xc1, 0x82, 0xbe, 0xa9, 0xe6, 0x28, 0xbe, 0x22, 0xa3, 0x39, 0x3e,
  0xca, 0x33, 0xf9, 0xbe, 0x8d, 0xf7, 0x41, 0x3c, 0xf2, 0x23, 0xb1, 0xbe,
  0xf8, 0xc8, 0x7e, 0xbe, 0x91, 0xd3, 0xcd, 0xbe, 0xc4, 0xbe, 0x82, 0x3e,
  0x27, 0x39, 0xfd, 0x3e, 0x6b, 0x01, 0x11, 0x3e, 0xd9, 0xd3, 0x3e, 0xbd,
  0x7b, 0xb7, 0xda, 0x3e, 0xcd, 0x40, 0xb0, 0xbe, 0x02, 0x90, 0x1f, 0x3f,
  0x01, 0x4d, 0xd5, 0x3d, 0x5f, 0x7e, 0x9d, 0xbe, 0x48, 0x17, 0x07, 0x3e,
  0xa0, 0x47, 0xfd, 0x3e, 0xff, 0xa2, 0x5f, 0xbe, 0xf4, 0x12, 0x94, 0x3e,
  0x47, 0x01, 0x1c, 0x3f, 0x8a, 0x69, 0xc8, 0xbd, 0x3b, 0x1c, 0x1a, 0x3f,
  0x68, 0x28, 0xed, 0x3e, 0x99, 0x31, 0x19, 0x3e, 0xcc, 0xa2, 0xc7, 0x3e,
  0xc2, 0xbc, 0xda, 0x3d, 0x85, 0xc5, 0xab, 0xbe, 0x3c, 0x5d, 0x1a, 0x3f,
  0xd5, 0x8e, 0x21, 0x3f, 0x01, 0xa5, 0x22, 0xbe, 0x3b, 0x4d, 0x9d, 0xbd,
  0x8b, 0x57, 0x07, 0x3f, 0xd8, 0x05, 0x95, 0xbd, 0xfe, 0x82, 0x09, 0xbe,
  0x81, 0x05, 0x23, 0x3e, 0xb3, 0x9d, 0x26, 0xbd, 0xcf, 0x9d, 0xb0, 0xbe,
  0x38, 0xd9, 0x14, 0x3f, 0x15, 0x76, 0xe8, 0x3d, 0x78, 0x1d, 0xb9, 0xbd,
  0xfb, 0x21, 0xd2, 0x3e, 0xdf, 0x59, 0x04, 0xbf, 0xc8, 0x3e, 0x9f, 0x3d,
  0x6a, 0xca, 0x8c, 0x3e, 0x0d, 0x6d, 0x4a, 0x3e, 0x8c, 0x02, 0x95, 0xbe,
  0xe5, 0x67, 0x74, 0x3e, 0x2f, 0x06, 0xc5, 0xbe, 0xc9, 0x30, 0x77, 0x3e,
  0x5f, 0x8c, 0x33, 0x3e, 0xd1, 0x8c, 0x86, 0xbe, 0xf1, 0xe3, 0x33, 0x3d,
  0x63, 0x2a, 0x18, 0x3f, 0x3f, 0xad, 0xc7, 0xbe, 0xe1, 0x9e, 0x90, 0x3d,
  0xfd, 0xdd, 0xff, 0x3e, 0x17, 0x5a, 0xfe, 0xbe, 0xbb, 0x7e, 0xf6, 0x3d,
  0xb4, 0x7f, 0xf1, 0x3e, 0xa9, 0x4e, 0x97, 0xbe, 0xa2, 0x3f, 0x6c, 0x3e,
  0x08, 0x81, 0xab, 0x3e, 0x45, 0x33, 0xdc, 0xbe, 0x06, 0xd7, 0x99, 0x3d,
  0xba, 0x52, 0xe4, 0x3d, 0x23, 0x26, 0x08, 0xbe, 0xe7, 0xe5, 0x4d, 0x3e,
  0x20, 0x39, 0x24, 0xbf, 0xf4, 0xdd, 0xaa, 0x3d, 0x33, 0x4b, 0x01, 0x3d,
  0xbb, 0xbb, 0x80, 0xbe, 0x70, 0x83, 0x95, 0xbd, 0xd0, 0xf3, 0xd5, 0x3e,
  0xab, 0x7b, 0x2a, 0xbf, 0x1f, 0x70, 0x55, 0x3d, 0xf2, 0x1a, 0xba, 0x3e,
  0x2a, 0x50, 0x04, 0xbd, 0xfc, 0xec, 0xbd, 0xbe, 0xa5, 0x85, 0x37, 0xbe,
  0x02, 0x43, 0x19, 0xbf, 0xa8, 0xc0, 0xf5, 0xbe, 0xf5, 0x97, 0x62, 0xbe,
  0xf8, 0x05, 0x85, 0xbe, 0x81, 0xb4, 0xee, 0x3d, 0x4c, 0x1f, 0x4d, 0xbe,
  0x0e, 0x7b, 0xa5, 0xbd, 0x69, 0x91, 0xaa, 0xbe, 0x0e, 0x3a, 0x9a, 0x3d,
  0x68, 0x18, 0xb7, 0xbe, 0x5d, 0xac, 0xae, 0xbe, 0xc6, 0xb5, 0x47, 0x3e,
  0x18, 0xd5, 0xe4, 0xbd, 0xcb, 0x1c, 0xdb, 0xbe, 0xdc, 0x64, 0x15, 0x3d,
  0x6c, 0x01, 0xb6, 0xbe, 0xaa, 0x9c, 0xa1, 0xbe, 0xfe, 0x11, 0xe3, 0x3e,
  0x46, 0xb4, 0xef, 0x3e, 0x94, 0xdc, 0x47, 0x3e, 0x5a, 0x58, 0x2e, 0xbb,
  0xdc, 0xbd, 0x0d, 0x3f, 0x95, 0x27, 0x1f, 0xbc, 0x4d, 0x0c, 0xa9, 0x3e,
  0xa2, 0x56, 0x15, 0x3e, 0x2c, 0x67, 0x60, 0x3e, 0xb9, 0x6e, 0x95, 0x3e,
  0x07, 0xd2, 0x08, 0x3e, 0x55, 0xb2, 0xc1, 0xbe, 0x38, 0x9b, 0x0e, 0x3f,
  0x22, 0x33, 0x11, 0x3f, 0x56, 0xdf, 0x62, 0xbe, 0xfd, 0xa8, 0xec, 0x3e,
  0xea, 0x62, 0x0c, 0x3f, 0xbd, 0xdf, 0x53, 0xbe, 0x4c, 0x6a, 0xb5, 0x3d,
  0xa9, 0x55, 0x87, 0x3d, 0x11, 0xa8, 0xa0, 0xbd, 0xa5, 0xba, 0xbb, 0x3d,
  0xd1, 0xa1, 0xb5, 0x3e, 0x87, 0x73, 0xb7, 0xbe, 0x06, 0xd1, 0xee, 0xbd,
  0xac, 0xa0, 0xa3, 0xbd, 0x33, 0x1f, 0x95, 0xbe, 0xf8, 0x56, 0xa2, 0x3e,
  0xe4, 0x36, 0xec, 0x3e, 0xd7, 0x1e, 0x95, 0xbe, 0xb6, 0xcf, 0xfc, 0x3d,
  0x26, 0xfc, 0x1c, 0xbe, 0xda, 0x18, 0x65, 0x3c, 0x36, 0x60, 0x87, 0x3e,
  0xc1, 0x67, 0x32, 0xbf, 0x10, 0xc2, 0x23, 0xbe, 0x94, 0x38, 0xa2, 0x3d,
  0xc4, 0xfe, 0x1a, 0xbf, 0xd6, 0x3a, 0x57, 0xbe, 0x1f, 0x49, 0x5a, 0xbe,
  0xf9, 0x5e, 0xa9, 0xba, 0xc6, 0xd3, 0xac, 0xbe, 0xca, 0x84, 0xf3, 0x3e,
  0x26, 0xb4, 0xcf, 0xbe, 0x37, 0xbd, 0x52, 0xbd, 0xa1, 0x1a, 0x59, 0x3e,
  0x19, 0xee, 0x93, 0xbd, 0x3f, 0x8a, 0x97, 0xbc, 0x46, 0x58, 0x9c, 0xbe,
  0xb3, 0x6c, 0xcd, 0xbd, 0x9e, 0x1c, 0x9a, 0xbe, 0x6e, 0x07, 0x9f, 0xbe,
  0x51, 0x46, 0xc8, 0xbd, 0x85, 0xf4, 0xa3, 0x3a, 0x49, 0xc7, 0xd2, 0x3e,
  0x62, 0x38, 0x88, 0xbe, 0x93, 0x01, 0x84, 0xbc, 0x43, 0xd8, 0x99, 0x3d,
  0x2b, 0x67, 0xe0, 0xbe, 0x95, 0x9b, 0xc3, 0xbd, 0x5a, 0xfe, 0xff, 0xff,
  0x04, 0x00, 0x00, 0x00, 0x80, 0x00, 0x00, 0x00, 0x2a, 0x05, 0x40, 0xbf,
  0x2e, 0xa8, 0x87, 0xbe, 0x52, 0xec, 0x35, 0x3f, 0x00, 0x4d, 0xdd, 0xbe,
  0xb7, 0xcb, 0x1b, 0xbf, 0x57, 0x63, 0x43, 0x3f, 0x07, 0x45, 0x3b, 0xbe,
  0x2c, 0x0b, 0x88, 0x3f, 0xc5, 0xe8, 0xd2, 0xbe, 0x49, 0xdd, 0x5f, 0xbf,
  0x30, 0x28, 0x3a, 0x3f, 0x1c, 0xbb, 0x3a, 0x3f, 0x50, 0x07, 0xcb, 0x3e,
  0x34, 0x98, 0xa2, 0xbd, 0xd6, 0xbb, 0x2b, 0x3f, 0x8c, 0xaf, 0x6c, 0x3e,
  0xef, 0xdc, 0x79, 0x3f, 0x7e, 0x0c, 0x3a, 0x3f, 0x80, 0x0b, 0x5e, 0x3f,
  0x85, 0x4c, 0x3f, 0xbe, 0x4a, 0xa5, 0x19, 0x3f, 0x51, 0xbf, 0x4c, 0x3f,
  0x41, 0x88, 0x06, 0x3e, 0xf9, 0x62, 0x08, 0xbf, 0xfb, 0x57, 0x6e, 0x3f,
  0x15, 0x04, 0xb0, 0xbe, 0x69, 0x63, 0x38, 0x3d, 0x11, 0x8e, 0x18, 0x3f,
  0x8e, 0x5b, 0x08, 0x3f, 0x9d, 0x2c, 0x49, 0xbe, 0x42, 0x5d, 0x4a, 0x3f,
  0x94, 0x89, 0x7c, 0x3e, 0xe6, 0xfe, 0xff, 0xff, 0x04, 0x00, 0x00, 0x00,
  0x40, 0x00, 0x00, 0x00, 0x7b, 0xa0, 0x31, 0xbf, 0xd6, 0x90, 0x9a, 0xbe,
  0xfd, 0xe5, 0xb0, 0xbf, 0x96, 0x23, 0x8a, 0xbc, 0x97, 0xc0, 0x85, 0xbf,
  0x11, 0x0d, 0x9d, 0x3f, 0xad, 0x94, 0x64, 0xbe, 0x86, 0x58, 0x89, 0x3f,
  0x80, 0x27, 0xad, 0x3f, 0xa5, 0xfa, 0x7c, 0x3e, 0x9a, 0x2b, 0x97, 0x3d,
  0x0f, 0xde, 0x3b, 0xbf, 0x4f, 0x58, 0x81, 0xbf, 0xb1, 0xa5, 0xa3, 0xbf,
  0x28, 0x0c, 0x92, 0x3f, 0xb3, 0x21, 0x0f, 0x3f, 0x32, 0xff, 0xff, 0xff,
  0x04, 0x00, 0x00, 0x00, 0x10, 0x00, 0x00, 0x00, 0x19, 0x1a, 0xe3, 0x3f,
  0x17, 0x5e, 0xb2, 0xbf, 0x8b, 0xe1, 0xb1, 0xbf, 0xb9, 0x97, 0xcd, 0xbf,
  0x4e, 0xff, 0xff, 0xff, 0x04, 0x00, 0x00, 0x00, 0x10, 0x00, 0x00, 0x00,
  0x61, 0xe1, 0x04, 0xbc, 0x17, 0x61, 0x46, 0xbe, 0xf9, 0x72, 0xf6, 0xbd,
  0x0e, 0x3a, 0xff, 0xbd, 0x78, 0xfa, 0xff, 0xff, 0x7c, 0xfa, 0xff, 0xff,
  0x0f, 0x00, 0x00, 0x00, 0x4d, 0x4c, 0x49, 0x52, 0x20, 0x43, 0x6f, 0x6e,
  0x76, 0x65, 0x72, 0x74, 0x65, 0x64, 0x2e, 0x00, 0x01, 0x00, 0x00, 0x00,
  0x14, 0x00, 0x00, 0x00, 0x00, 0x00, 0x0e, 0x00, 0x18, 0x00, 0x14, 0x00,
  0x10, 0x00, 0x0c, 0x00, 0x08, 0x00, 0x04, 0x00, 0x0e, 0x00, 0x00, 0x00,
  0x14, 0x00, 0x00, 0x00, 0x1c, 0x00, 0x00, 0x00, 0x24, 0x01, 0x00, 0x00,
  0x28, 0x01, 0x00, 0x00, 0x2c, 0x01, 0x00, 0x00, 0x04, 0x00, 0x00, 0x00,
  0x6d, 0x61, 0x69, 0x6e, 0x00, 0x00, 0x00, 0x00, 0x04, 0x00, 0x00, 0x00,
  0xcc, 0x00, 0x00, 0x00, 0x84, 0x00, 0x00, 0x00, 0x50, 0x00, 0x00, 0x00,
  0x14, 0x00, 0x00, 0x00, 0x00, 0x00, 0x0e, 0x00, 0x1a, 0x00, 0x14, 0x00,
  0x10, 0x00, 0x0c, 0x00, 0x0b, 0x00, 0x04, 0x00, 0x0e, 0x00, 0x00, 0x00,
  0x1c, 0x00, 0x00, 0x00, 0x00, 0x00, 0x00, 0x09, 0x1c, 0x00, 0x00, 0x00,
  0x20, 0x00, 0x00, 0x00, 0x01, 0x00, 0x00, 0x00, 0x00, 0x00, 0x06, 0x00,
  0x08, 0x00, 0x04, 0x00, 0x06, 0x00, 0x00, 0x00, 0x00, 0x00, 0x80, 0x3f,
  0x01, 0x00, 0x00, 0x00, 0x0a, 0x00, 0x00, 0x00, 0x01, 0x00, 0x00, 0x00,
  0x09, 0x00, 0x00, 0x00, 0x9a, 0xff, 0xff, 0xff, 0x10, 0x00, 0x00, 0x00,
  0x00, 0x00, 0x00, 0x08, 0x0c, 0x00, 0x00, 0x00, 0x10, 0x00, 0x00, 0x00,
  0x40, 0xfb, 0xff, 0xff, 0x01, 0x00, 0x00, 0x00, 0x09, 0x00, 0x00, 0x00,
  0x03, 0x00, 0x00, 0x00, 0x08, 0x00, 0x00, 0x00, 0x03, 0x00, 0x00, 0x00,
  0x02, 0x00, 0x00, 0x00, 0xca, 0xff, 0xff, 0xff, 0x10, 0x00, 0x00, 0x00,
  0x00, 0x00, 0x00, 0x08, 0x10, 0x00, 0x00, 0x00, 0x14, 0x00, 0x00, 0x00,
  0xba, 0xff, 0xff, 0xff, 0x00, 0x00, 0x00, 0x01, 0x01, 0x00, 0x00, 0x00,
  0x08, 0x00, 0x00, 0x00, 0x03, 0x00, 0x00, 0x00, 0x07, 0x00, 0x00, 0x00,
  0x04, 0x00, 0x00, 0x00, 0x01, 0x00, 0x00, 0x00, 0x00, 0x00, 0x0e, 0x00,
  0x16, 0x00, 0x00, 0x00, 0x10, 0x00, 0x0c, 0x00, 0x0b, 0x00, 0x04, 0x00,
  0x0e, 0x00, 0x00, 0x00, 0x18, 0x00, 0x00, 0x00, 0x00, 0x00, 0x00, 0x08,
  0x18, 0x00, 0x00, 0x00, 0x1c, 0x00, 0x00, 0x00, 0x00, 0x00, 0x06, 0x00,
  0x08, 0x00, 0x07, 0x00, 0x06, 0x00, 0x00, 0x00, 0x00, 0x00, 0x00, 0x01,
  0x01, 0x00, 0x00, 0x00, 0x07, 0x00, 0x00, 0x00, 0x03, 0x00, 0x00, 0x00,
  0x00, 0x00, 0x00, 0x00, 0x05, 0x00, 0x00, 0x00, 0x06, 0x00, 0x00, 0x00,
  0x01, 0x00, 0x00, 0x00, 0x0a, 0x00, 0x00, 0x00, 0x01, 0x00, 0x00, 0x00,
  0x00, 0x00, 0x00, 0x00, 0x0b, 0x00, 0x00, 0x00, 0xe8, 0x03, 0x00, 0x00,
  0x94, 0x03, 0x00, 0x00, 0x40, 0x03, 0x00, 0x00, 0x00, 0x03, 0x00, 0x00,
  0xc0, 0x02, 0x00, 0x00, 0x74, 0x02, 0x00, 0x00, 0x10, 0x02, 0x00, 0x00,
  0x7c, 0x01, 0x00, 0x00, 0xe0, 0x00, 0x00, 0x00, 0x60, 0x00, 0x00, 0x00,
  0x04, 0x00, 0x00, 0x00, 0x5a, 0xfc, 0xff, 0xff, 0x00, 0x00, 0x00, 0x01,
  0x14, 0x00, 0x00, 0x00, 0x1c, 0x00, 0x00, 0x00, 0x1c, 0x00, 0x00, 0x00,
  0x0b, 0x00, 0x00, 0x00, 0x34, 0x00, 0x00, 0x00, 0x02, 0x00, 0x00, 0x00,
  0xff, 0xff, 0xff, 0xff, 0x04, 0x00, 0x00, 0x00, 0x44, 0xfc, 0xff, 0xff,
  0x1b, 0x00, 0x00, 0x00, 0x53, 0x74, 0x61, 0x74, 0x65, 0x66, 0x75, 0x6c,
  0x50, 0x61, 0x72, 0x74, 0x69, 0x74, 0x69, 0x6f, 0x6e, 0x65, 0x64, 0x43,
  0x61, 0x6c, 0x6c, 0x5f, 0x31, 0x3a, 0x30, 0x00, 0x02, 0x00, 0x00, 0x00,
  0x01, 0x00, 0x00, 0x00, 0x04, 0x00, 0x00, 0x00, 0xb2, 0xfc, 0xff, 0xff,
  0x00, 0x00, 0x00, 0x01, 0x14, 0x00, 0x00, 0x00, 0x1c, 0x00, 0x00, 0x00,
  0x1c, 0x00, 0x00, 0x00, 0x0a, 0x00, 0x00, 0x00, 0x58, 0x00, 0x00, 0x00,
  0x02, 0x00, 0x00, 0x00, 0xff, 0xff, 0xff, 0xff, 0x04, 0x00, 0x00, 0x00,
  0x9c, 0xfc, 0xff, 0xff, 0x3c, 0x00, 0x00, 0x00, 0x73, 0x65, 0x71, 0x75,
  0x65, 0x6e, 0x74, 0x69, 0x61, 0x6c, 0x5f, 0x31, 0x2f, 0x64, 0x65, 0x6e,
  0x73, 0x65, 0x5f, 0x32, 0x5f, 0x31, 0x2f, 0x4d, 0x61, 0x74, 0x4d, 0x75,
  0x6c, 0x3b, 0x73, 0x65, 0x71, 0x75, 0x65, 0x6e, 0x74, 0x69, 0x61, 0x6c,
  0x5f, 0x31, 0x2f, 0x64, 0x65, 0x6e, 0x73, 0x65, 0x5f, 0x32, 0x5f, 0x31,
  0x2f, 0x42, 0x69, 0x61, 0x73, 0x41, 0x64, 0x64, 0x00, 0x00, 0x00, 0x00,
  0x02, 0x00, 0x00, 0x00, 0x01, 0x00, 0x00, 0x00, 0x04, 0x00, 0x00, 0x00,
  0x2e, 0xfd, 0xff, 0xff, 0x00, 0x00, 0x00, 0x01, 0x14, 0x00, 0x00, 0x00,
  0x1c, 0x00, 0x00, 0x00, 0x1c, 0x00, 0x00, 0x00, 0x09, 0x00, 0x00, 0x00,
  0x74, 0x00, 0x00, 0x00, 0x02, 0x00, 0x00, 0x00, 0xff, 0xff, 0xff, 0xff,
  0x04, 0x00, 0x00, 0x00, 0x18, 0xfd, 0xff, 0xff, 0x58, 0x00, 0x00, 0x00,
  0x73, 0x65, 0x71, 0x75, 0x65, 0x6e, 0x74, 0x69, 0x61, 0x6c, 0x5f, 0x31,
  0x2f, 0x64, 0x65, 0x6e, 0x73, 0x65, 0x5f, 0x31, 0x5f, 0x32, 0x2f, 0x4d,
  0x61, 0x74, 0x4d, 0x75, 0x6c, 0x3b, 0x73, 0x65, 0x71, 0x75, 0x65, 0x6e,
  0x74, 0x69, 0x61, 0x6c, 0x5f, 0x31, 0x2f, 0x64, 0x65, 0x6e, 0x73, 0x65,
  0x5f, 0x31, 0x5f, 0x32, 0x2f, 0x52, 0x65, 0x6c, 0x75, 0x3b, 0x73, 0x65,
  0x71, 0x75, 0x65, 0x6e, 0x74, 0x69, 0x61, 0x6c, 0x5f, 0x31, 0x2f, 0x64,
  0x65, 0x6e, 0x73, 0x65, 0x5f, 0x31, 0x5f, 0x32, 0x2f, 0x42, 0x69, 0x61,
  0x73, 0x41, 0x64, 0x64, 0x00, 0x00, 0x00, 0x00, 0x02, 0x00, 0x00, 0x00,
  0x01, 0x00, 0x00, 0x00, 0x04, 0x00, 0x00, 0x00, 0xc6, 0xfd, 0xff, 0xff,
  0x00, 0x00, 0x00, 0x01, 0x14, 0x00, 0x00, 0x00, 0x1c, 0x00, 0x00, 0x00,
  0x1c, 0x00, 0x00, 0x00, 0x08, 0x00, 0x00, 0x00, 0x6c, 0x00, 0x00, 0x00,
  0x02, 0x00, 0x00, 0x00, 0xff, 0xff, 0xff, 0xff, 0x08, 0x00, 0x00, 0x00,
  0xb0, 0xfd, 0xff, 0xff, 0x52, 0x00, 0x00, 0x00, 0x73, 0x65, 0x71, 0x75,
  0x65, 0x6e, 0x74, 0x69, 0x61, 0x6c, 0x5f, 0x31, 0x2f, 0x64, 0x65, 0x6e,
  0x73, 0x65, 0x5f, 0x31, 0x2f, 0x4d, 0x61, 0x74, 0x4d, 0x75, 0x6c, 0x3b,
  0x73, 0x65, 0x71, 0x75, 0x65, 0x6e, 0x74, 0x69, 0x61, 0x6c, 0x5f, 0x31,
  0x2f, 0x64, 0x65, 0x6e, 0x73, 0x65, 0x5f, 0x31, 0x2f, 0x52, 0x65, 0x6c,
  0x75, 0x3b, 0x73, 0x65, 0x71, 0x75, 0x65, 0x6e, 0x74, 0x69, 0x61, 0x6c,
  0x5f, 0x31, 0x2f, 0x64, 0x65, 0x6e, 0x73, 0x65, 0x5f, 0x31, 0x2f, 0x42,
  0x69, 0x61, 0x73, 0x41, 0x64, 0x64, 0x00, 0x00, 0x02, 0x00, 0x00, 0x00,
  0x01, 0x00, 0x00, 0x00, 0x08, 0x00, 0x00, 0x00, 0xa6, 0xfe, 0xff, 0xff,
  0x00, 0x00, 0x00, 0x01, 0x10, 0x00, 0x00, 0x00, 0x10, 0x00, 0x00, 0x00,
  0x07, 0x00, 0x00, 0x00, 0x44, 0x00, 0x00, 0x00, 0x30, 0xfe, 0xff, 0xff,
  0x36, 0x00, 0x00, 0x00, 0x73, 0x65, 0x71, 0x75, 0x65, 0x6e, 0x74, 0x69,
  0x61, 0x6c, 0x5f, 0x31, 0x2f, 0x64, 0x65, 0x6e, 0x73, 0x65, 0x5f, 0x31,
  0x2f, 0x52, 0x65, 0x6c, 0x75, 0x3b, 0x73, 0x65, 0x71, 0x75, 0x65, 0x6e,
  0x74, 0x69, 0x61, 0x6c, 0x5f, 0x31, 0x2f, 0x64, 0x65, 0x6e, 0x73, 0x65,
  0x5f, 0x31, 0x2f, 0x42, 0x69, 0x61, 0x73, 0x41, 0x64, 0x64, 0x00, 0x00,
  0x01, 0x00, 0x00, 0x00, 0x08, 0x00, 0x00, 0x00, 0x06, 0xff, 0xff, 0xff,
  0x00, 0x00, 0x00, 0x01, 0x10, 0x00, 0x00, 0x00, 0x10, 0x00, 0x00, 0x00,
  0x06, 0x00, 0x00, 0x00, 0x28, 0x00, 0x00, 0x00, 0x90, 0xfe, 0xff, 0xff,
  0x1b, 0x00, 0x00, 0x00, 0x73, 0x65, 0x71, 0x75, 0x65, 0x6e, 0x74, 0x69,
  0x61, 0x6c, 0x5f, 0x31, 0x2f, 0x64, 0x65, 0x6e, 0x73, 0x65, 0x5f, 0x31,
  0x2f, 0x4d, 0x61, 0x74, 0x4d, 0x75, 0x6c, 0x00, 0x02, 0x00, 0x00, 0x00,
  0x08, 0x00, 0x00, 0x00, 0x1e, 0x00, 0x00, 0x00, 0x4e, 0xff, 0xff, 0xff,
  0x00, 0x00, 0x00, 0x01, 0x10, 0x00, 0x00, 0x00, 0x10, 0x00, 0x00, 0x00,
  0x05, 0x00, 0x00, 0x00, 0x1c, 0x00, 0x00, 0x00, 0xd8, 0xfe, 0xff, 0xff,
  0x0f, 0x00, 0x00, 0x00, 0x61, 0x72, 0x69, 0x74, 0x68, 0x2e, 0x63, 0x6f,
  0x6e, 0x73, 0x74, 0x61, 0x6e, 0x74, 0x33, 0x00, 0x02, 0x00, 0x00, 0x00,
  0x04, 0x00, 0x00, 0x00, 0x08, 0x00, 0x00, 0x00, 0x8a, 0xff, 0xff, 0xff,
  0x00, 0x00, 0x00, 0x01, 0x10, 0x00, 0x00, 0x00, 0x10, 0x00, 0x00, 0x00,
  0x04, 0x00, 0x00, 0x00, 0x1c, 0x00, 0x00, 0x00, 0x14, 0xff, 0xff, 0xff,
  0x0f, 0x00, 0x00, 0x00, 0x61, 0x72, 0x69, 0x74, 0x68, 0x2e, 0x63, 0x6f,
  0x6e, 0x73, 0x74, 0x61, 0x6e, 0x74, 0x32, 0x00, 0x02, 0x00, 0x00, 0x00,
  0x04, 0x00, 0x00, 0x00, 0x04, 0x00, 0x00, 0x00, 0xc6, 0xff, 0xff, 0xff,
  0x00, 0x00, 0x00, 0x01, 0x10, 0x00, 0x00, 0x00, 0x10, 0x00, 0x00, 0x00,
  0x03, 0x00, 0x00, 0x00, 0x1c, 0x00, 0x00, 0x00, 0x50, 0xff, 0xff, 0xff,
  0x0f, 0x00, 0x00, 0x00, 0x61, 0x72, 0x69, 0x74, 0x68, 0x2e, 0x63, 0x6f,
  0x6e, 0x73, 0x74, 0x61, 0x6e, 0x74, 0x31, 0x00, 0x01, 0x00, 0x00, 0x00,
  0x04, 0x00, 0x00, 0x00, 0x00, 0x00, 0x16, 0x00, 0x18, 0x00, 0x14, 0x00,
  0x00, 0x00, 0x10, 0x00, 0x0c, 0x00, 0x08, 0x00, 0x00, 0x00, 0x00, 0x00,
  0x00, 0x00, 0x07, 0x00, 0x16, 0x00, 0x00, 0x00, 0x00, 0x00, 0x00, 0x01,
  0x10, 0x00, 0x00, 0x00, 0x10, 0x00, 0x00, 0x00, 0x02, 0x00, 0x00, 0x00,
  0x1c, 0x00, 0x00, 0x00, 0xa0, 0xff, 0xff, 0xff, 0x0e, 0x00, 0x00, 0x00,
  0x61, 0x72, 0x69, 0x74, 0x68, 0x2e, 0x63, 0x6f, 0x6e, 0x73, 0x74, 0x61,
  0x6e, 0x74, 0x00, 0x00, 0x01, 0x00, 0x00, 0x00, 0x04, 0x00, 0x00, 0x00,
  0x00, 0x00, 0x16, 0x00, 0x1c, 0x00, 0x18, 0x00, 0x00, 0x00, 0x14, 0x00,
  0x10, 0x00, 0x0c, 0x00, 0x00, 0x00, 0x00, 0x00, 0x08, 0x00, 0x07, 0x00,
  0x16, 0x00, 0x00, 0x00, 0x00, 0x00, 0x00, 0x01, 0x14, 0x00, 0x00, 0x00,
  0x20, 0x00, 0x00, 0x00, 0x20, 0x00, 0x00, 0x00, 0x01, 0x00, 0x00, 0x00,
  0x3c, 0x00, 0x00, 0x00, 0x02, 0x00, 0x00, 0x00, 0xff, 0xff, 0xff, 0xff,
  0x1e, 0x00, 0x00, 0x00, 0x04, 0x00, 0x04, 0x00, 0x04, 0x00, 0x00, 0x00,
  0x1e, 0x00, 0x00, 0x00, 0x73, 0x65, 0x72, 0x76, 0x69, 0x6e, 0x67, 0x5f,
  0x64, 0x65, 0x66, 0x61, 0x75, 0x6c, 0x74, 0x5f, 0x6b, 0x65, 0x72, 0x61,
  0x73, 0x5f, 0x74, 0x65, 0x6e, 0x73, 0x6f, 0x72, 0x3a, 0x30, 0x00, 0x00,
  0x02, 0x00, 0x00, 0x00, 0x01, 0x00, 0x00, 0x00, 0x1e, 0x00, 0x00, 0x00,
  0x02, 0x00, 0x00, 0x00, 0x20, 0x00, 0x00, 0x00, 0x04, 0x00, 0x00, 0x00,
  0xf4, 0xff, 0xff, 0xff, 0x19, 0x00, 0x00, 0x00, 0x00, 0x00, 0x00, 0x19,
  0x0c, 0x00, 0x0c, 0x00, 0x0b, 0x00, 0x00, 0x00, 0x00, 0x00, 0x04, 0x00,
  0x0c, 0x00, 0x00, 0x00, 0x09, 0x00, 0x00, 0x00, 0x00, 0x00, 0x00, 0x09
};
