const unsigned char model[] = {
    0x1c, 0x00, 0x00, 0x00, 0x54, 0x46, 0x4c, 0x33, 0x14, 0x00, 0x20, 0x00,
    0x1c, 0x00, 0x18, 0x00, 0x14, 0x00, 0x10, 0x00, 0x0c, 0x00, 0x00, 0x00,
    0x08, 0x00, 0x04, 0x00, 0x14, 0x00, 0x00, 0x00, 0x1c, 0x00, 0x00, 0x00,
    0x98, 0x00, 0x00, 0x00, 0xf0, 0x00, 0x00, 0x00, 0xa0, 0x07, 0x00, 0x00,
    0xb0, 0x07, 0x00, 0x00, 0x50, 0x0d, 0x00, 0x00, 0x03, 0x00, 0x00, 0x00,
    0x01, 0x00, 0x00, 0x00, 0x10, 0x00, 0x00, 0x00, 0x00, 0x00, 0x0a, 0x00,
    0x10, 0x00, 0x0c, 0x00, 0x08, 0x00, 0x04, 0x00, 0x0a, 0x00, 0x00, 0x00,
    0x0c, 0x00, 0x00, 0x00, 0x1c, 0x00, 0x00, 0x00, 0x3c, 0x00, 0x00, 0x00,
    0x0f, 0x00, 0x00, 0x00, 0x73, 0x65, 0x72, 0x76, 0x69, 0x6e, 0x67, 0x5f,
    0x64, 0x65, 0x66, 0x61, 0x75, 0x6c, 0x74, 0x00, 0x01, 0x00, 0x00, 0x00,
    0x04, 0x00, 0x00, 0x00, 0x90, 0xff, 0xff, 0xff, 0x0a, 0x00, 0x00, 0x00,
    0x04, 0x00, 0x00, 0x00, 0x08, 0x00, 0x00, 0x00, 0x6f, 0x75, 0x74, 0x70,
    0x75, 0x74, 0x5f, 0x30, 0x00, 0x00, 0x00, 0x00, 0x01, 0x00, 0x00, 0x00,
    0x04, 0x00, 0x00, 0x00, 0x46, 0xf8, 0xff, 0xff, 0x04, 0x00, 0x00, 0x00,
    0x0c, 0x00, 0x00, 0x00, 0x6b, 0x65, 0x72, 0x61, 0x73, 0x5f, 0x74, 0x65,
    0x6e, 0x73, 0x6f, 0x72, 0x00, 0x00, 0x00, 0x00, 0x02, 0x00, 0x00, 0x00,
    0x34, 0x00, 0x00, 0x00, 0x04, 0x00, 0x00, 0x00, 0xdc, 0xff, 0xff, 0xff,
    0x0d, 0x00, 0x00, 0x00, 0x04, 0x00, 0x00, 0x00, 0x13, 0x00, 0x00, 0x00,
    0x43, 0x4f, 0x4e, 0x56, 0x45, 0x52, 0x53, 0x49, 0x4f, 0x4e, 0x5f, 0x4d,
    0x45, 0x54, 0x41, 0x44, 0x41, 0x54, 0x41, 0x00, 0x08, 0x00, 0x0c, 0x00,
    0x08, 0x00, 0x04, 0x00, 0x08, 0x00, 0x00, 0x00, 0x0c, 0x00, 0x00, 0x00,
    0x04, 0x00, 0x00, 0x00, 0x13, 0x00, 0x00, 0x00, 0x6d, 0x69, 0x6e, 0x5f,
    0x72, 0x75, 0x6e, 0x74, 0x69, 0x6d, 0x65, 0x5f, 0x76, 0x65, 0x72, 0x73,
    0x69, 0x6f, 0x6e, 0x00, 0x0e, 0x00, 0x00, 0x00, 0xac, 0x06, 0x00, 0x00,
    0xa4, 0x06, 0x00, 0x00, 0x74, 0x06, 0x00, 0x00, 0x54, 0x06, 0x00, 0x00,
    0xc4, 0x05, 0x00, 0x00, 0xb4, 0x04, 0x00, 0x00, 0xe4, 0x00, 0x00, 0x00,
    0xb4, 0x00, 0x00, 0x00, 0xac, 0x00, 0x00, 0x00, 0xa4, 0x00, 0x00, 0x00,
    0x9c, 0x00, 0x00, 0x00, 0x94, 0x00, 0x00, 0x00, 0x74, 0x00, 0x00, 0x00,
    0x04, 0x00, 0x00, 0x00, 0xfa, 0xf8, 0xff, 0xff, 0x04, 0x00, 0x00, 0x00,
    0x60, 0x00, 0x00, 0x00, 0x10, 0x00, 0x00, 0x00, 0x00, 0x00, 0x00, 0x00,
    0x08, 0x00, 0x0e, 0x00, 0x08, 0x00, 0x04, 0x00, 0x08, 0x00, 0x00, 0x00,
    0x10, 0x00, 0x00, 0x00, 0x24, 0x00, 0x00, 0x00, 0x00, 0x00, 0x06, 0x00,
    0x08, 0x00, 0x04, 0x00, 0x06, 0x00, 0x00, 0x00, 0x04, 0x00, 0x00, 0x00,
    0x00, 0x00, 0x00, 0x00, 0x0c, 0x00, 0x18, 0x00, 0x14, 0x00, 0x10, 0x00,
    0x0c, 0x00, 0x04, 0x00, 0x0c, 0x00, 0x00, 0x00, 0x4b, 0xad, 0x52, 0x3a,
    0xb2, 0xf7, 0x95, 0x30, 0x02, 0x00, 0x00, 0x00, 0x02, 0x00, 0x00, 0x00,
    0x04, 0x00, 0x00, 0x00, 0x06, 0x00, 0x00, 0x00, 0x32, 0x2e, 0x32, 0x30,
    0x2e, 0x30, 0x00, 0x00, 0x66, 0xf9, 0xff, 0xff, 0x04, 0x00, 0x00, 0x00,
    0x10, 0x00, 0x00, 0x00, 0x31, 0x2e, 0x35, 0x2e, 0x30, 0x00, 0x00, 0x00,
    0x00, 0x00, 0x00, 0x00, 0x00, 0x00, 0x00, 0x00, 0x90, 0xf4, 0xff, 0xff,
    0x94, 0xf4, 0xff, 0xff, 0x98, 0xf4, 0xff, 0xff, 0x9c, 0xf4, 0xff, 0xff,
    0x92, 0xf9, 0xff, 0xff, 0x04, 0x00, 0x00, 0x00, 0x20, 0x00, 0x00, 0x00,
    0x0f, 0xd5, 0x7e, 0xbf, 0x1e, 0x52, 0xa5, 0xbf, 0x01, 0x57, 0xb5, 0xbc,
    0x4b, 0x4a, 0x24, 0xc0, 0x68, 0x81, 0x0b, 0xc0, 0x69, 0xf7, 0x44, 0xbf,
    0xac, 0x24, 0x62, 0x3e, 0x7b, 0x91, 0xe8, 0xbf, 0xbe, 0xf9, 0xff, 0xff,
    0x04, 0x00, 0x00, 0x00, 0xc0, 0x03, 0x00, 0x00, 0xc0, 0x05, 0x7c, 0xbf,
    0x24, 0x19, 0x5e, 0xc0, 0x45, 0x00, 0x2a, 0x3f, 0xda, 0x05, 0x2e, 0xbf,
    0x50, 0x25, 0x3e, 0xc0, 0x69, 0xf8, 0x82, 0x3e, 0xb1, 0xbb, 0xed, 0xbe,
    0x8c, 0x73, 0x3a, 0xc0, 0x9b, 0x23, 0x59, 0x3f, 0x3e, 0x95, 0x67, 0xbf,
    0x1e, 0x06, 0x41, 0xc0, 0xfd, 0xa6, 0xfa, 0x3e, 0xfb, 0x22, 0xcd, 0xbd,
    0xbf, 0xa1, 0x45, 0xc0, 0x3c, 0xcf, 0x21, 0x3f, 0xf4, 0xf8, 0xb5, 0xbe,
    0xd4, 0x3a, 0x7b, 0xc0, 0x3a, 0x46, 0xeb, 0x3e, 0x8f, 0xfb, 0x75, 0xbe,
    0xd6, 0xe3, 0x62, 0xc0, 0xe9, 0xa2, 0x81, 0x3f, 0x7f, 0x0d, 0x06, 0xbe,
    0xd4, 0xe6, 0x7d, 0xc0, 0x66, 0x7c, 0x0e, 0x3f, 0x69, 0xfa, 0xa0, 0xbd,
    0x19, 0xe8, 0x7a, 0xc0, 0x4d, 0xb1, 0xec, 0x3e, 0x1e, 0xc4, 0xe1, 0x3e,
    0xab, 0xb4, 0x8c, 0xc0, 0xfa, 0xc7, 0x98, 0x3f, 0xab, 0x34, 0x14, 0xbf,
    0x5b, 0xa7, 0x09, 0xbf, 0x21, 0xfb, 0x99, 0xbe, 0xa5, 0x24, 0x96, 0x3e,
    0xf3, 0xfb, 0x3b, 0xbe, 0x3b, 0x97, 0xcc, 0x3d, 0x09, 0x65, 0x99, 0x3e,
    0xdd, 0xdd, 0xc7, 0xbe, 0x9f, 0x93, 0xba, 0x3c, 0xc9, 0x41, 0x61, 0x3d,
    0xb0, 0x78, 0x13, 0xbe, 0xcb, 0x86, 0xa8, 0x3d, 0x50, 0x13, 0x70, 0x3c,
    0xe6, 0x48, 0x89, 0xbe, 0x72, 0x23, 0xae, 0xbe, 0xca, 0xf1, 0xb9, 0xbe,
    0x73, 0x51, 0x0f, 0x3c, 0xaf, 0xbf, 0x07, 0x3e, 0x1f, 0x23, 0xbb, 0xbd,
    0x9c, 0x82, 0x13, 0xbf, 0x6c, 0x43, 0x24, 0xbf, 0x06, 0x37, 0x13, 0xbf,
    0x50, 0xb2, 0x06, 0xbf, 0xa1, 0x1f, 0xbf, 0xbe, 0x2c, 0xeb, 0xe8, 0xbe,
    0x30, 0x96, 0x41, 0xbe, 0xde, 0xa8, 0xfb, 0xbe, 0x69, 0x3d, 0x47, 0xbf,
    0x99, 0x2a, 0x05, 0xbe, 0x92, 0xf3, 0xa1, 0xbe, 0x6d, 0x48, 0x9f, 0x3e,
    0xe1, 0x3f, 0x3e, 0xbf, 0x13, 0x43, 0x4d, 0xc0, 0xc4, 0xa1, 0x40, 0x3f,
    0x50, 0x69, 0x9e, 0xbe, 0x11, 0x9a, 0x22, 0xc0, 0xb7, 0xdd, 0x1a, 0x3f,
    0x2f, 0xa0, 0x6a, 0xbf, 0x2f, 0xba, 0x07, 0xc0, 0xf7, 0x7a, 0xa9, 0x3e,
    0xc1, 0x44, 0x8a, 0xbf, 0x4b, 0x84, 0x12, 0xc0, 0x66, 0x1b, 0x49, 0x3f,
    0xc8, 0xcc, 0xa2, 0xbf, 0xe7, 0x77, 0x2a, 0xc0, 0x20, 0xc9, 0x2a, 0x3f,
    0xff, 0x09, 0x90, 0xbf, 0xf3, 0x24, 0x28, 0xc0, 0xf5, 0x1f, 0x38, 0x3e,
    0x5f, 0x64, 0x95, 0xbf, 0x49, 0x26, 0x1a, 0xc0, 0x2d, 0xd5, 0xda, 0x3e,
    0x78, 0x6e, 0x87, 0xbf, 0x86, 0x96, 0x15, 0xc0, 0x6c, 0xed, 0x35, 0x3f,
    0xa5, 0xfb, 0x34, 0xbf, 0xb0, 0x43, 0x23, 0xc0, 0x7f, 0x68, 0x61, 0x3f,
    0x6a, 0xf1, 0x80, 0xbf, 0x4d, 0xf0, 0x18, 0xc0, 0xa8, 0xab, 0x28, 0xc0,
    0x0e, 0x79, 0x34, 0xc0, 0xaa, 0xbd, 0xa3, 0xbd, 0x73, 0xf1, 0x0e, 0xc0,
    0x6c, 0x57, 0x16, 0xc0, 0x70, 0x7e, 0x5e, 0x3c, 0xa8, 0xb1, 0x0e, 0xc0,
    0x58, 0x7c, 0x22, 0xc0, 0x6a, 0xd3, 0x59, 0x3e, 0x2f, 0x83, 0x18, 0xc0,
    0x56, 0x41, 0xf1, 0xbf, 0xaf, 0x5c, 0x1c, 0x3f, 0x54, 0x08, 0x2a, 0xc0,
    0x1f, 0x6f, 0x04, 0xc0, 0x30, 0xc8, 0x95, 0x3e, 0x3c, 0x96, 0x2b, 0xc0,
    0xe9, 0x19, 0xea, 0xbf, 0x89, 0x50, 0x09, 0x3e, 0xa3, 0xea, 0x12, 0xc0,
    0x07, 0x8f, 0xd1, 0xbf, 0x13, 0x3e, 0x0e, 0x3f, 0x84, 0xff, 0x1f, 0xc0,
    0xa9, 0x48, 0xda, 0xbf, 0x22, 0xc3, 0x85, 0x3e, 0x83, 0xd9, 0xff, 0xbf,
    0x79, 0x9f, 0xf0, 0xbf, 0xcc, 0x61, 0x11, 0xbb, 0xa1, 0xdd, 0x6d, 0xc0,
    0x75, 0x6b, 0x14, 0xc0, 0x05, 0x51, 0xdb, 0xbe, 0x82, 0x08, 0xb9, 0xbf,
    0x4b, 0xbd, 0x0e, 0xc0, 0x90, 0xab, 0x65, 0xbf, 0xa0, 0xe5, 0x4d, 0xbf,
    0xe2, 0x68, 0x2d, 0xc0, 0x4f, 0x47, 0xa6, 0xbe, 0x8c, 0xaf, 0xa5, 0xbf,
    0x14, 0x6d, 0x23, 0xc0, 0x5d, 0x8a, 0x37, 0xbe, 0xf4, 0x39, 0x9a, 0xbf,
    0x6f, 0x2e, 0x1d, 0xc0, 0x55, 0xe0, 0xd3, 0xbe, 0x8e, 0xde, 0x98, 0xbf,
    0xfc, 0x38, 0x07, 0xc0, 0xa3, 0x32, 0x81, 0xbe, 0x0a, 0x29, 0x65, 0xbf,
    0xd5, 0x1d, 0x0b, 0xc0, 0x47, 0x49, 0x92, 0xbe, 0x77, 0xda, 0x79, 0xbf,
    0x3a, 0x61, 0xb4, 0xbf, 0x26, 0xb7, 0x9a, 0xbe, 0x6a, 0x2f, 0x9c, 0xbf,
    0x04, 0xe2, 0xcf, 0xbf, 0x73, 0xb0, 0x40, 0xbf, 0xe1, 0xde, 0xa0, 0xbf,
    0x6d, 0x1a, 0xd8, 0xbf, 0x74, 0xca, 0xb0, 0xbe, 0x31, 0x91, 0xf1, 0xbf,
    0xbd, 0x2b, 0xb1, 0xbf, 0x7a, 0xdb, 0x89, 0xbf, 0x56, 0xfd, 0x12, 0x40,
    0x27, 0x1b, 0x99, 0x3c, 0x36, 0x4e, 0xc4, 0x3e, 0x59, 0x1b, 0xe9, 0x3f,
    0x7c, 0x2b, 0xd8, 0xbd, 0xe2, 0x2c, 0x8d, 0xbe, 0xc5, 0x55, 0xd9, 0x3f,
    0x02, 0xd8, 0x0a, 0xbe, 0xe4, 0x82, 0xe1, 0x3d, 0xc5, 0x49, 0xbf, 0x3f,
    0xb0, 0x5b, 0x55, 0xbd, 0x83, 0x7a, 0xb9, 0x3c, 0x88, 0x07, 0xdd, 0x3f,
    0xee, 0x48, 0x2e, 0xbf, 0xe4, 0xf1, 0x0a, 0xbe, 0x36, 0x3d, 0xa5, 0x3f,
    0xb0, 0xe8, 0x51, 0xbe, 0x6f, 0x88, 0xea, 0x3d, 0x64, 0xc4, 0xbe, 0x3f,
    0x7f, 0x61, 0x10, 0xbf, 0x48, 0xf7, 0x3d, 0x3e, 0x1d, 0xb0, 0xb4, 0x3f,
    0x55, 0xc1, 0x01, 0xbf, 0xde, 0x6f, 0x8f, 0xbe, 0xaa, 0x2a, 0x00, 0x40,
    0x75, 0x49, 0x6a, 0xbf, 0x1f, 0x49, 0x1c, 0xbc, 0x8b, 0xe3, 0x1f, 0x40,
    0xd5, 0x42, 0x9d, 0x3e, 0x00, 0x68, 0xa5, 0x3e, 0x4b, 0xf2, 0x98, 0x3f,
    0xc4, 0x91, 0x65, 0xbf, 0x0e, 0x76, 0x80, 0x3f, 0x28, 0x2c, 0xd4, 0x3f,
    0x1a, 0xe8, 0x1e, 0xbf, 0xb0, 0x97, 0x73, 0x3f, 0x13, 0x32, 0xb5, 0x3f,
    0x24, 0xc2, 0x8c, 0xbf, 0xd2, 0xe9, 0x97, 0x3f, 0xe5, 0x87, 0xba, 0x3f,
    0x1e, 0xc6, 0xca, 0xbe, 0x10, 0x09, 0x2d, 0x3f, 0x8d, 0x9a, 0x97, 0x3f,
    0x4a, 0x08, 0x80, 0xbf, 0x43, 0x9c, 0x26, 0x3f, 0x35, 0xe3, 0xbd, 0x3f,
    0x24, 0x01, 0x7b, 0xbf, 0xf4, 0xaa, 0xa7, 0x3f, 0xdc, 0xc8, 0xa4, 0x3f,
    0x33, 0x3d, 0x89, 0xbf, 0x4f, 0x48, 0xba, 0x3f, 0x18, 0xda, 0xb2, 0x3f,
    0x3e, 0xb8, 0xd9, 0xbf, 0x74, 0x64, 0xb1, 0x3f, 0x04, 0xc4, 0xfa, 0x3f,
    0x45, 0x5e, 0xbc, 0xbf, 0x19, 0x48, 0xa1, 0x3f, 0x2d, 0x5c, 0x2c, 0x40,
    0xf6, 0xb8, 0x35, 0xc0, 0x06, 0x6d, 0xe4, 0x3f, 0x84, 0xd4, 0x0f, 0x40,
    0x2c, 0xf1, 0x98, 0xbf, 0x95, 0xf1, 0x94, 0x3d, 0xd9, 0xcf, 0xdf, 0x3f,
    0xb2, 0x6e, 0xfe, 0xbf, 0xe0, 0x7d, 0x44, 0x3e, 0xd9, 0x9c, 0xee, 0x3f,
    0x18, 0xd7, 0xb6, 0xbf, 0xb2, 0xd5, 0x01, 0xbe, 0x26, 0xca, 0xd0, 0x3f,
    0x63, 0x21, 0x00, 0xc0, 0x60, 0x17, 0x15, 0x3f, 0xab, 0x88, 0x99, 0x3f,
    0x73, 0xc1, 0xf6, 0xbf, 0x2d, 0xbe, 0xab, 0x3d, 0x84, 0x6e, 0xd4, 0x3f,
    0xb0, 0x4c, 0xc2, 0xbf, 0x7d, 0xf6, 0xd7, 0xbd, 0x81, 0xc6, 0xdf, 0x3f,
    0x48, 0xbb, 0xeb, 0xbf, 0xc1, 0xcd, 0x61, 0x3e, 0xb5, 0x49, 0xea, 0x3f,
    0x8b, 0x42, 0xeb, 0xbf, 0xa8, 0xe1, 0x14, 0x3f, 0x57, 0xf8, 0x1e, 0x40,
    0x69, 0xc5, 0xd6, 0xbf, 0xa7, 0x38, 0x56, 0x3e, 0xfa, 0x0a, 0x1f, 0x40,
    0xfa, 0xb6, 0xb9, 0xbf, 0x34, 0x51, 0x3c, 0x3e, 0x8a, 0xfd, 0xff, 0xff,
    0x04, 0x00, 0x00, 0x00, 0x00, 0x01, 0x00, 0x00, 0x6d, 0xff, 0x39, 0x40,
    0xee, 0xa5, 0xdc, 0xbc, 0xb5, 0x70, 0x0c, 0xc0, 0x16, 0x0e, 0xed, 0xbf,
    0xfd, 0x96, 0x06, 0x3f, 0x8c, 0x22, 0xb2, 0xbf, 0xda, 0x43, 0x88, 0x3f,
    0x14, 0x45, 0x05, 0xc0, 0x42, 0x4c, 0x4c, 0xbf, 0x05, 0x96, 0x87, 0xbc,
    0x3a, 0x21, 0x96, 0x3f, 0xf8, 0x48, 0xc3, 0x3f, 0x85, 0x6a, 0x32, 0xbf,
    0x59, 0x21, 0x0c, 0xc0, 0x1d, 0x7c, 0xf6, 0xbf, 0xa0, 0x80, 0x02, 0x3f,
    0x51, 0xe2, 0x08, 0xbf, 0x67, 0x1c, 0x3e, 0xc0, 0x6e, 0x46, 0xbd, 0xbe,
    0xaa, 0x66, 0xf0, 0xbc, 0xd6, 0xb1, 0x51, 0xbf, 0x17, 0xb7, 0xfa, 0xbd,
    0xab, 0xe1, 0x0c, 0x3f, 0x69, 0x91, 0xa4, 0x3f, 0xc4, 0x18, 0x16, 0x40,
    0x15, 0x6b, 0xc8, 0x3e, 0x2c, 0xd6, 0x73, 0xbf, 0x06, 0xf7, 0x97, 0xbf,
    0x6d, 0xe7, 0xed, 0xbf, 0x8d, 0x3c, 0xb2, 0xbf, 0x8b, 0x5c, 0x8e, 0x3f,
    0x11, 0xbe, 0xd4, 0xbf, 0x08, 0xe5, 0x06, 0xbe, 0x9a, 0xfb, 0x2a, 0xc0,
    0xb1, 0xe1, 0x01, 0x40, 0x8a, 0xfc, 0x91, 0xbf, 0x4d, 0x82, 0xe3, 0x3d,
    0xf1, 0xc4, 0xba, 0xbf, 0xf8, 0x4b, 0x30, 0xc0, 0xe7, 0x07, 0x13, 0xbf,
    0x60, 0x3e, 0x19, 0x3f, 0x9f, 0x2c, 0x35, 0x3e, 0xcc, 0x3e, 0x4e, 0xbf,
    0xdf, 0xf6, 0xba, 0xbf, 0x4d, 0x3f, 0x56, 0x3e, 0x2f, 0xad, 0x66, 0xbf,
    0x3d, 0xb7, 0xe0, 0x3e, 0xcb, 0xa2, 0x94, 0xbf, 0x28, 0xb6, 0x69, 0x3f,
    0xbf, 0xa6, 0x7f, 0xbe, 0x11, 0xa7, 0xcc, 0xbf, 0xa8, 0x77, 0xba, 0xbe,
    0x78, 0xae, 0x5e, 0xc0, 0x71, 0x1b, 0x0f, 0x40, 0x95, 0x0c, 0x8c, 0xbe,
    0x40, 0x14, 0x3d, 0xbf, 0x3f, 0xc2, 0xf5, 0xbf, 0xb2, 0x90, 0x0b, 0x3e,
    0x41, 0x73, 0xcc, 0x3e, 0x7a, 0x4d, 0xf1, 0x3f, 0x93, 0xb3, 0x91, 0x3f,
    0x7d, 0xeb, 0x9a, 0xbe, 0x56, 0x77, 0x61, 0xc0, 0x25, 0x7a, 0xbf, 0xbd,
    0x96, 0xfe, 0xff, 0xff, 0x04, 0x00, 0x00, 0x00, 0x80, 0x00, 0x00, 0x00,
    0x88, 0xfa, 0x0e, 0x3f, 0x2f, 0xe0, 0xb4, 0xbf, 0x84, 0x66, 0xab, 0xbf,
    0xe9, 0x7d, 0x07, 0x3f, 0x23, 0x8b, 0xfc, 0xbf, 0xe1, 0x50, 0x18, 0x3f,
    0x67, 0x19, 0x88, 0xbf, 0xcb, 0xfd, 0x98, 0xbd, 0xf5, 0xec, 0x9e, 0xbf,
    0x44, 0xbe, 0x4b, 0xc0, 0x4c, 0x8f, 0x92, 0x3e, 0x43, 0xaf, 0xe8, 0xbf,
    0x14, 0x19, 0xe3, 0xbf, 0x00, 0x65, 0x21, 0xc0, 0x63, 0x2d, 0x91, 0x3e,
    0x4d, 0xda, 0x44, 0xc1, 0x46, 0xb9, 0x7f, 0xbf, 0x95, 0x94, 0xe2, 0x3c,
    0xf2, 0xb0, 0x9b, 0xc0, 0x7f, 0x15, 0xa1, 0xbf, 0xfd, 0xb2, 0x7b, 0xc0,
    0xd5, 0xa4, 0xb1, 0xbf, 0xe9, 0x25, 0x0a, 0xc0, 0xb1, 0xdc, 0xba, 0x3e,
    0xb6, 0xc5, 0x0a, 0xc1, 0xcf, 0xf8, 0x76, 0xbe, 0x3b, 0x2b, 0x59, 0xbe,
    0xd5, 0xc7, 0x23, 0xc1, 0xaa, 0x94, 0x16, 0x40, 0x5c, 0x82, 0x8b, 0xc0,
    0x53, 0x6a, 0xa7, 0xc0, 0xb4, 0xbf, 0x30, 0xc0, 0x22, 0xff, 0xff, 0xff,
    0x04, 0x00, 0x00, 0x00, 0x10, 0x00, 0x00, 0x00, 0xfc, 0x44, 0xb8, 0x3f,
    0xc7, 0x8c, 0x53, 0xc0, 0x57, 0xc8, 0x8c, 0xbf, 0x0c, 0x3e, 0x5e, 0xc0,
    0x3e, 0xff, 0xff, 0xff, 0x04, 0x00, 0x00, 0x00, 0x20, 0x00, 0x00, 0x00,
    0x4f, 0x6d, 0x2a, 0x40, 0x96, 0x0b, 0x91, 0xbf, 0x7c, 0x18, 0x42, 0xc0,
    0xe4, 0xec, 0xfe, 0x3f, 0xd6, 0x58, 0xc5, 0x3e, 0xef, 0xc8, 0xef, 0x3f,
    0x06, 0xb5, 0xd7, 0x3c, 0xb2, 0x2b, 0x3c, 0xc0, 0x78, 0xfa, 0xff, 0xff,
    0x7c, 0xfa, 0xff, 0xff, 0x0f, 0x00, 0x00, 0x00, 0x4d, 0x4c, 0x49, 0x52,
    0x20, 0x43, 0x6f, 0x6e, 0x76, 0x65, 0x72, 0x74, 0x65, 0x64, 0x2e, 0x00,
    0x01, 0x00, 0x00, 0x00, 0x14, 0x00, 0x00, 0x00, 0x00, 0x00, 0x0e, 0x00,
    0x18, 0x00, 0x14, 0x00, 0x10, 0x00, 0x0c, 0x00, 0x08, 0x00, 0x04, 0x00,
    0x0e, 0x00, 0x00, 0x00, 0x14, 0x00, 0x00, 0x00, 0x1c, 0x00, 0x00, 0x00,
    0x24, 0x01, 0x00, 0x00, 0x28, 0x01, 0x00, 0x00, 0x2c, 0x01, 0x00, 0x00,
    0x04, 0x00, 0x00, 0x00, 0x6d, 0x61, 0x69, 0x6e, 0x00, 0x00, 0x00, 0x00,
    0x04, 0x00, 0x00, 0x00, 0xcc, 0x00, 0x00, 0x00, 0x84, 0x00, 0x00, 0x00,
    0x50, 0x00, 0x00, 0x00, 0x14, 0x00, 0x00, 0x00, 0x00, 0x00, 0x0e, 0x00,
    0x1a, 0x00, 0x14, 0x00, 0x10, 0x00, 0x0c, 0x00, 0x0b, 0x00, 0x04, 0x00,
    0x0e, 0x00, 0x00, 0x00, 0x1c, 0x00, 0x00, 0x00, 0x00, 0x00, 0x00, 0x09,
    0x1c, 0x00, 0x00, 0x00, 0x20, 0x00, 0x00, 0x00, 0x01, 0x00, 0x00, 0x00,
    0x00, 0x00, 0x06, 0x00, 0x08, 0x00, 0x04, 0x00, 0x06, 0x00, 0x00, 0x00,
    0x00, 0x00, 0x80, 0x3f, 0x01, 0x00, 0x00, 0x00, 0x0a, 0x00, 0x00, 0x00,
    0x01, 0x00, 0x00, 0x00, 0x09, 0x00, 0x00, 0x00, 0x9a, 0xff, 0xff, 0xff,
    0x10, 0x00, 0x00, 0x00, 0x00, 0x00, 0x00, 0x08, 0x0c, 0x00, 0x00, 0x00,
    0x10, 0x00, 0x00, 0x00, 0x40, 0xfb, 0xff, 0xff, 0x01, 0x00, 0x00, 0x00,
    0x09, 0x00, 0x00, 0x00, 0x03, 0x00, 0x00, 0x00, 0x08, 0x00, 0x00, 0x00,
    0x03, 0x00, 0x00, 0x00, 0x02, 0x00, 0x00, 0x00, 0xca, 0xff, 0xff, 0xff,
    0x10, 0x00, 0x00, 0x00, 0x00, 0x00, 0x00, 0x08, 0x10, 0x00, 0x00, 0x00,
    0x14, 0x00, 0x00, 0x00, 0xba, 0xff, 0xff, 0xff, 0x00, 0x00, 0x00, 0x01,
    0x01, 0x00, 0x00, 0x00, 0x08, 0x00, 0x00, 0x00, 0x03, 0x00, 0x00, 0x00,
    0x07, 0x00, 0x00, 0x00, 0x04, 0x00, 0x00, 0x00, 0x01, 0x00, 0x00, 0x00,
    0x00, 0x00, 0x0e, 0x00, 0x16, 0x00, 0x00, 0x00, 0x10, 0x00, 0x0c, 0x00,
    0x0b, 0x00, 0x04, 0x00, 0x0e, 0x00, 0x00, 0x00, 0x18, 0x00, 0x00, 0x00,
    0x00, 0x00, 0x00, 0x08, 0x18, 0x00, 0x00, 0x00, 0x1c, 0x00, 0x00, 0x00,
    0x00, 0x00, 0x06, 0x00, 0x08, 0x00, 0x07, 0x00, 0x06, 0x00, 0x00, 0x00,
    0x00, 0x00, 0x00, 0x01, 0x01, 0x00, 0x00, 0x00, 0x07, 0x00, 0x00, 0x00,
    0x03, 0x00, 0x00, 0x00, 0x00, 0x00, 0x00, 0x00, 0x05, 0x00, 0x00, 0x00,
    0x06, 0x00, 0x00, 0x00, 0x01, 0x00, 0x00, 0x00, 0x0a, 0x00, 0x00, 0x00,
    0x01, 0x00, 0x00, 0x00, 0x00, 0x00, 0x00, 0x00, 0x0b, 0x00, 0x00, 0x00,
    0xe8, 0x03, 0x00, 0x00, 0x94, 0x03, 0x00, 0x00, 0x40, 0x03, 0x00, 0x00,
    0x00, 0x03, 0x00, 0x00, 0xc0, 0x02, 0x00, 0x00, 0x74, 0x02, 0x00, 0x00,
    0x10, 0x02, 0x00, 0x00, 0x7c, 0x01, 0x00, 0x00, 0xe0, 0x00, 0x00, 0x00,
    0x60, 0x00, 0x00, 0x00, 0x04, 0x00, 0x00, 0x00, 0x5a, 0xfc, 0xff, 0xff,
    0x00, 0x00, 0x00, 0x01, 0x14, 0x00, 0x00, 0x00, 0x1c, 0x00, 0x00, 0x00,
    0x1c, 0x00, 0x00, 0x00, 0x0b, 0x00, 0x00, 0x00, 0x34, 0x00, 0x00, 0x00,
    0x02, 0x00, 0x00, 0x00, 0xff, 0xff, 0xff, 0xff, 0x04, 0x00, 0x00, 0x00,
    0x44, 0xfc, 0xff, 0xff, 0x1b, 0x00, 0x00, 0x00, 0x53, 0x74, 0x61, 0x74,
    0x65, 0x66, 0x75, 0x6c, 0x50, 0x61, 0x72, 0x74, 0x69, 0x74, 0x69, 0x6f,
    0x6e, 0x65, 0x64, 0x43, 0x61, 0x6c, 0x6c, 0x5f, 0x31, 0x3a, 0x30, 0x00,
    0x02, 0x00, 0x00, 0x00, 0x01, 0x00, 0x00, 0x00, 0x04, 0x00, 0x00, 0x00,
    0xb2, 0xfc, 0xff, 0xff, 0x00, 0x00, 0x00, 0x01, 0x14, 0x00, 0x00, 0x00,
    0x1c, 0x00, 0x00, 0x00, 0x1c, 0x00, 0x00, 0x00, 0x0a, 0x00, 0x00, 0x00,
    0x58, 0x00, 0x00, 0x00, 0x02, 0x00, 0x00, 0x00, 0xff, 0xff, 0xff, 0xff,
    0x04, 0x00, 0x00, 0x00, 0x9c, 0xfc, 0xff, 0xff, 0x3c, 0x00, 0x00, 0x00,
    0x73, 0x65, 0x71, 0x75, 0x65, 0x6e, 0x74, 0x69, 0x61, 0x6c, 0x5f, 0x31,
    0x2f, 0x64, 0x65, 0x6e, 0x73, 0x65, 0x5f, 0x32, 0x5f, 0x31, 0x2f, 0x4d,
    0x61, 0x74, 0x4d, 0x75, 0x6c, 0x3b, 0x73, 0x65, 0x71, 0x75, 0x65, 0x6e,
    0x74, 0x69, 0x61, 0x6c, 0x5f, 0x31, 0x2f, 0x64, 0x65, 0x6e, 0x73, 0x65,
    0x5f, 0x32, 0x5f, 0x31, 0x2f, 0x42, 0x69, 0x61, 0x73, 0x41, 0x64, 0x64,
    0x00, 0x00, 0x00, 0x00, 0x02, 0x00, 0x00, 0x00, 0x01, 0x00, 0x00, 0x00,
    0x04, 0x00, 0x00, 0x00, 0x2e, 0xfd, 0xff, 0xff, 0x00, 0x00, 0x00, 0x01,
    0x14, 0x00, 0x00, 0x00, 0x1c, 0x00, 0x00, 0x00, 0x1c, 0x00, 0x00, 0x00,
    0x09, 0x00, 0x00, 0x00, 0x74, 0x00, 0x00, 0x00, 0x02, 0x00, 0x00, 0x00,
    0xff, 0xff, 0xff, 0xff, 0x08, 0x00, 0x00, 0x00, 0x18, 0xfd, 0xff, 0xff,
    0x58, 0x00, 0x00, 0x00, 0x73, 0x65, 0x71, 0x75, 0x65, 0x6e, 0x74, 0x69,
    0x61, 0x6c, 0x5f, 0x31, 0x2f, 0x64, 0x65, 0x6e, 0x73, 0x65, 0x5f, 0x31,
    0x5f, 0x32, 0x2f, 0x4d, 0x61, 0x74, 0x4d, 0x75, 0x6c, 0x3b, 0x73, 0x65,
    0x71, 0x75, 0x65, 0x6e, 0x74, 0x69, 0x61, 0x6c, 0x5f, 0x31, 0x2f, 0x64,
    0x65, 0x6e, 0x73, 0x65, 0x5f, 0x31, 0x5f, 0x32, 0x2f, 0x52, 0x65, 0x6c,
    0x75, 0x3b, 0x73, 0x65, 0x71, 0x75, 0x65, 0x6e, 0x74, 0x69, 0x61, 0x6c,
    0x5f, 0x31, 0x2f, 0x64, 0x65, 0x6e, 0x73, 0x65, 0x5f, 0x31, 0x5f, 0x32,
    0x2f, 0x42, 0x69, 0x61, 0x73, 0x41, 0x64, 0x64, 0x00, 0x00, 0x00, 0x00,
    0x02, 0x00, 0x00, 0x00, 0x01, 0x00, 0x00, 0x00, 0x08, 0x00, 0x00, 0x00,
    0xc6, 0xfd, 0xff, 0xff, 0x00, 0x00, 0x00, 0x01, 0x14, 0x00, 0x00, 0x00,
    0x1c, 0x00, 0x00, 0x00, 0x1c, 0x00, 0x00, 0x00, 0x08, 0x00, 0x00, 0x00,
    0x6c, 0x00, 0x00, 0x00, 0x02, 0x00, 0x00, 0x00, 0xff, 0xff, 0xff, 0xff,
    0x08, 0x00, 0x00, 0x00, 0xb0, 0xfd, 0xff, 0xff, 0x52, 0x00, 0x00, 0x00,
    0x73, 0x65, 0x71, 0x75, 0x65, 0x6e, 0x74, 0x69, 0x61, 0x6c, 0x5f, 0x31,
    0x2f, 0x64, 0x65, 0x6e, 0x73, 0x65, 0x5f, 0x31, 0x2f, 0x4d, 0x61, 0x74,
    0x4d, 0x75, 0x6c, 0x3b, 0x73, 0x65, 0x71, 0x75, 0x65, 0x6e, 0x74, 0x69,
    0x61, 0x6c, 0x5f, 0x31, 0x2f, 0x64, 0x65, 0x6e, 0x73, 0x65, 0x5f, 0x31,
    0x2f, 0x52, 0x65, 0x6c, 0x75, 0x3b, 0x73, 0x65, 0x71, 0x75, 0x65, 0x6e,
    0x74, 0x69, 0x61, 0x6c, 0x5f, 0x31, 0x2f, 0x64, 0x65, 0x6e, 0x73, 0x65,
    0x5f, 0x31, 0x2f, 0x42, 0x69, 0x61, 0x73, 0x41, 0x64, 0x64, 0x00, 0x00,
    0x02, 0x00, 0x00, 0x00, 0x01, 0x00, 0x00, 0x00, 0x08, 0x00, 0x00, 0x00,
    0xa6, 0xfe, 0xff, 0xff, 0x00, 0x00, 0x00, 0x01, 0x10, 0x00, 0x00, 0x00,
    0x10, 0x00, 0x00, 0x00, 0x07, 0x00, 0x00, 0x00, 0x44, 0x00, 0x00, 0x00,
    0x30, 0xfe, 0xff, 0xff, 0x36, 0x00, 0x00, 0x00, 0x73, 0x65, 0x71, 0x75,
    0x65, 0x6e, 0x74, 0x69, 0x61, 0x6c, 0x5f, 0x31, 0x2f, 0x64, 0x65, 0x6e,
    0x73, 0x65, 0x5f, 0x31, 0x2f, 0x52, 0x65, 0x6c, 0x75, 0x3b, 0x73, 0x65,
    0x71, 0x75, 0x65, 0x6e, 0x74, 0x69, 0x61, 0x6c, 0x5f, 0x31, 0x2f, 0x64,
    0x65, 0x6e, 0x73, 0x65, 0x5f, 0x31, 0x2f, 0x42, 0x69, 0x61, 0x73, 0x41,
    0x64, 0x64, 0x00, 0x00, 0x01, 0x00, 0x00, 0x00, 0x08, 0x00, 0x00, 0x00,
    0x06, 0xff, 0xff, 0xff, 0x00, 0x00, 0x00, 0x01, 0x10, 0x00, 0x00, 0x00,
    0x10, 0x00, 0x00, 0x00, 0x06, 0x00, 0x00, 0x00, 0x28, 0x00, 0x00, 0x00,
    0x90, 0xfe, 0xff, 0xff, 0x1b, 0x00, 0x00, 0x00, 0x73, 0x65, 0x71, 0x75,
    0x65, 0x6e, 0x74, 0x69, 0x61, 0x6c, 0x5f, 0x31, 0x2f, 0x64, 0x65, 0x6e,
    0x73, 0x65, 0x5f, 0x31, 0x2f, 0x4d, 0x61, 0x74, 0x4d, 0x75, 0x6c, 0x00,
    0x02, 0x00, 0x00, 0x00, 0x08, 0x00, 0x00, 0x00, 0x1e, 0x00, 0x00, 0x00,
    0x4e, 0xff, 0xff, 0xff, 0x00, 0x00, 0x00, 0x01, 0x10, 0x00, 0x00, 0x00,
    0x10, 0x00, 0x00, 0x00, 0x05, 0x00, 0x00, 0x00, 0x1c, 0x00, 0x00, 0x00,
    0xd8, 0xfe, 0xff, 0xff, 0x0f, 0x00, 0x00, 0x00, 0x61, 0x72, 0x69, 0x74,
    0x68, 0x2e, 0x63, 0x6f, 0x6e, 0x73, 0x74, 0x61, 0x6e, 0x74, 0x33, 0x00,
    0x02, 0x00, 0x00, 0x00, 0x08, 0x00, 0x00, 0x00, 0x08, 0x00, 0x00, 0x00,
    0x8a, 0xff, 0xff, 0xff, 0x00, 0x00, 0x00, 0x01, 0x10, 0x00, 0x00, 0x00,
    0x10, 0x00, 0x00, 0x00, 0x04, 0x00, 0x00, 0x00, 0x1c, 0x00, 0x00, 0x00,
    0x14, 0xff, 0xff, 0xff, 0x0f, 0x00, 0x00, 0x00, 0x61, 0x72, 0x69, 0x74,
    0x68, 0x2e, 0x63, 0x6f, 0x6e, 0x73, 0x74, 0x61, 0x6e, 0x74, 0x32, 0x00,
    0x02, 0x00, 0x00, 0x00, 0x04, 0x00, 0x00, 0x00, 0x08, 0x00, 0x00, 0x00,
    0xc6, 0xff, 0xff, 0xff, 0x00, 0x00, 0x00, 0x01, 0x10, 0x00, 0x00, 0x00,
    0x10, 0x00, 0x00, 0x00, 0x03, 0x00, 0x00, 0x00, 0x1c, 0x00, 0x00, 0x00,
    0x50, 0xff, 0xff, 0xff, 0x0f, 0x00, 0x00, 0x00, 0x61, 0x72, 0x69, 0x74,
    0x68, 0x2e, 0x63, 0x6f, 0x6e, 0x73, 0x74, 0x61, 0x6e, 0x74, 0x31, 0x00,
    0x01, 0x00, 0x00, 0x00, 0x04, 0x00, 0x00, 0x00, 0x00, 0x00, 0x16, 0x00,
    0x18, 0x00, 0x14, 0x00, 0x00, 0x00, 0x10, 0x00, 0x0c, 0x00, 0x08, 0x00,
    0x00, 0x00, 0x00, 0x00, 0x00, 0x00, 0x07, 0x00, 0x16, 0x00, 0x00, 0x00,
    0x00, 0x00, 0x00, 0x01, 0x10, 0x00, 0x00, 0x00, 0x10, 0x00, 0x00, 0x00,
    0x02, 0x00, 0x00, 0x00, 0x1c, 0x00, 0x00, 0x00, 0xa0, 0xff, 0xff, 0xff,
    0x0e, 0x00, 0x00, 0x00, 0x61, 0x72, 0x69, 0x74, 0x68, 0x2e, 0x63, 0x6f,
    0x6e, 0x73, 0x74, 0x61, 0x6e, 0x74, 0x00, 0x00, 0x01, 0x00, 0x00, 0x00,
    0x08, 0x00, 0x00, 0x00, 0x00, 0x00, 0x16, 0x00, 0x1c, 0x00, 0x18, 0x00,
    0x00, 0x00, 0x14, 0x00, 0x10, 0x00, 0x0c, 0x00, 0x00, 0x00, 0x00, 0x00,
    0x08, 0x00, 0x07, 0x00, 0x16, 0x00, 0x00, 0x00, 0x00, 0x00, 0x00, 0x01,
    0x14, 0x00, 0x00, 0x00, 0x20, 0x00, 0x00, 0x00, 0x20, 0x00, 0x00, 0x00,
    0x01, 0x00, 0x00, 0x00, 0x3c, 0x00, 0x00, 0x00, 0x02, 0x00, 0x00, 0x00,
    0xff, 0xff, 0xff, 0xff, 0x1e, 0x00, 0x00, 0x00, 0x04, 0x00, 0x04, 0x00,
    0x04, 0x00, 0x00, 0x00, 0x1e, 0x00, 0x00, 0x00, 0x73, 0x65, 0x72, 0x76,
    0x69, 0x6e, 0x67, 0x5f, 0x64, 0x65, 0x66, 0x61, 0x75, 0x6c, 0x74, 0x5f,
    0x6b, 0x65, 0x72, 0x61, 0x73, 0x5f, 0x74, 0x65, 0x6e, 0x73, 0x6f, 0x72,
    0x3a, 0x30, 0x00, 0x00, 0x02, 0x00, 0x00, 0x00, 0x01, 0x00, 0x00, 0x00,
    0x1e, 0x00, 0x00, 0x00, 0x02, 0x00, 0x00, 0x00, 0x20, 0x00, 0x00, 0x00,
    0x04, 0x00, 0x00, 0x00, 0xf4, 0xff, 0xff, 0xff, 0x19, 0x00, 0x00, 0x00,
    0x00, 0x00, 0x00, 0x19, 0x0c, 0x00, 0x0c, 0x00, 0x0b, 0x00, 0x00, 0x00,
    0x00, 0x00, 0x04, 0x00, 0x0c, 0x00, 0x00, 0x00, 0x09, 0x00, 0x00, 0x00,
    0x00, 0x00, 0x00, 0x09};
