const unsigned char model[] = {
  0x1c, 0x00, 0x00, 0x00, 0x54, 0x46, 0x4c, 0x33, 0x14, 0x00, 0x20, 0x00,
  0x1c, 0x00, 0x18, 0x00, 0x14, 0x00, 0x10, 0x00, 0x0c, 0x00, 0x00, 0x00,
  0x08, 0x00, 0x04, 0x00, 0x14, 0x00, 0x00, 0x00, 0x1c, 0x00, 0x00, 0x00,
  0x98, 0x00, 0x00, 0x00, 0xf0, 0x00, 0x00, 0x00, 0xac, 0x3e, 0x00, 0x00,
  0xbc, 0x3e, 0x00, 0x00, 0xf8, 0x43, 0x00, 0x00, 0x03, 0x00, 0x00, 0x00,
  0x01, 0x00, 0x00, 0x00, 0x10, 0x00, 0x00, 0x00, 0x00, 0x00, 0x0a, 0x00,
  0x10, 0x00, 0x0c, 0x00, 0x08, 0x00, 0x04, 0x00, 0x0a, 0x00, 0x00, 0x00,
  0x0c, 0x00, 0x00, 0x00, 0x1c, 0x00, 0x00, 0x00, 0x3c, 0x00, 0x00, 0x00,
  0x0f, 0x00, 0x00, 0x00, 0x73, 0x65, 0x72, 0x76, 0x69, 0x6e, 0x67, 0x5f,
  0x64, 0x65, 0x66, 0x61, 0x75, 0x6c, 0x74, 0x00, 0x01, 0x00, 0x00, 0x00,
  0x04, 0x00, 0x00, 0x00, 0x90, 0xff, 0xff, 0xff, 0x0a, 0x00, 0x00, 0x00,
  0x04, 0x00, 0x00, 0x00, 0x08, 0x00, 0x00, 0x00, 0x6f, 0x75, 0x74, 0x70,
  0x75, 0x74, 0x5f, 0x30, 0x00, 0x00, 0x00, 0x00, 0x01, 0x00, 0x00, 0x00,
  0x04, 0x00, 0x00, 0x00, 0x3a, 0xc1, 0xff, 0xff, 0x04, 0x00, 0x00, 0x00,
  0x0e, 0x00, 0x00, 0x00, 0x6b, 0x65, 0x72, 0x61, 0x73, 0x5f, 0x74, 0x65,
  0x6e, 0x73, 0x6f, 0x72, 0x5f, 0x38, 0x00, 0x00, 0x02, 0x00, 0x00, 0x00,
  0x34, 0x00, 0x00, 0x00, 0x04, 0x00, 0x00, 0x00, 0xdc, 0xff, 0xff, 0xff,
  0x0d, 0x00, 0x00, 0x00, 0x04, 0x00, 0x00, 0x00, 0x13, 0x00, 0x00, 0x00,
  0x43, 0x4f, 0x4e, 0x56, 0x45, 0x52, 0x53, 0x49, 0x4f, 0x4e, 0x5f, 0x4d,
  0x45, 0x54, 0x41, 0x44, 0x41, 0x54, 0x41, 0x00, 0x08, 0x00, 0x0c, 0x00,
  0x08, 0x00, 0x04, 0x00, 0x08, 0x00, 0x00, 0x00, 0x0c, 0x00, 0x00, 0x00,
  0x04, 0x00, 0x00, 0x00, 0x13, 0x00, 0x00, 0x00, 0x6d, 0x69, 0x6e, 0x5f,
  0x72, 0x75, 0x6e, 0x74, 0x69, 0x6d, 0x65, 0x5f, 0x76, 0x65, 0x72, 0x73,
  0x69, 0x6f, 0x6e, 0x00, 0x0e, 0x00, 0x00, 0x00, 0xb8, 0x3d, 0x00, 0x00,
  0xb0, 0x3d, 0x00, 0x00, 0xb0, 0x3c, 0x00, 0x00, 0xe8, 0x30, 0x00, 0x00,
  0xc8, 0x30, 0x00, 0x00, 0x7c, 0x30, 0x00, 0x00, 0xa4, 0x2f, 0x00, 0x00,
  0xb4, 0x00, 0x00, 0x00, 0xac, 0x00, 0x00, 0x00, 0xa4, 0x00, 0x00, 0x00,
  0x9c, 0x00, 0x00, 0x00, 0x94, 0x00, 0x00, 0x00, 0x74, 0x00, 0x00, 0x00,
  0x04, 0x00, 0x00, 0x00, 0xee, 0xc1, 0xff, 0xff, 0x04, 0x00, 0x00, 0x00,
  0x60, 0x00, 0x00, 0x00, 0x10, 0x00, 0x00, 0x00, 0x00, 0x00, 0x00, 0x00,
  0x08, 0x00, 0x0e, 0x00, 0x08, 0x00, 0x04, 0x00, 0x08, 0x00, 0x00, 0x00,
  0x10, 0x00, 0x00, 0x00, 0x24, 0x00, 0x00, 0x00, 0x00, 0x00, 0x06, 0x00,
  0x08, 0x00, 0x04, 0x00, 0x06, 0x00, 0x00, 0x00, 0x04, 0x00, 0x00, 0x00,
  0x00, 0x00, 0x00, 0x00, 0x0c, 0x00, 0x18, 0x00, 0x14, 0x00, 0x10, 0x00,
  0x0c, 0x00, 0x04, 0x00, 0x0c, 0x00, 0x00, 0x00, 0x81, 0xa3, 0xf5, 0x5c,
  0x4e, 0x11, 0xd2, 0x25, 0x02, 0x00, 0x00, 0x00, 0x02, 0x00, 0x00, 0x00,
  0x04, 0x00, 0x00, 0x00, 0x06, 0x00, 0x00, 0x00, 0x32, 0x2e, 0x31, 0x37,
  0x2e, 0x30, 0x00, 0x00, 0x5a, 0xc2, 0xff, 0xff, 0x04, 0x00, 0x00, 0x00,
  0x10, 0x00, 0x00, 0x00, 0x31, 0x2e, 0x35, 0x2e, 0x30, 0x00, 0x00, 0x00,
  0x00, 0x00, 0x00, 0x00, 0x00, 0x00, 0x00, 0x00, 0xec, 0xbd, 0xff, 0xff,
  0xf0, 0xbd, 0xff, 0xff, 0xf4, 0xbd, 0xff, 0xff, 0xf8, 0xbd, 0xff, 0xff,
  0x86, 0xc2, 0xff, 0xff, 0x04, 0x00, 0x00, 0x00, 0xe0, 0x2e, 0x00, 0x00,
  0xf8, 0xf9, 0x07, 0x3e, 0x8f, 0x49, 0xc2, 0xbd, 0xdf, 0x77, 0x1d, 0xbe,
  0xae, 0x27, 0x47, 0x3e, 0x51, 0x79, 0x6e, 0x3d, 0x37, 0x09, 0xcf, 0xbd,
  0x39, 0xd1, 0xf5, 0xbd, 0x4d, 0x39, 0xad, 0x3d, 0x61, 0x7e, 0xd5, 0xbd,
  0xeb, 0x88, 0x84, 0x3d, 0x5a, 0xfe, 0x61, 0x3e, 0x1a, 0x9f, 0x28, 0xbd,
  0xc1, 0xa6, 0x56, 0xbc, 0x04, 0x18, 0x45, 0xbe, 0x32, 0xf1, 0xab, 0x3d,
  0x6b, 0x14, 0x2b, 0x3e, 0xee, 0x66, 0xc4, 0x3d, 0x13, 0x30, 0x1a, 0xbe,
  0xd7, 0x71, 0xf7, 0xbd, 0x72, 0xe4, 0x6a, 0xbe, 0x46, 0xc2, 0x7a, 0x3d,
  0x39, 0xfc, 0x91, 0xbd, 0x4b, 0x5a, 0x3e, 0xbd, 0x91, 0x01, 0xa0, 0x3d,
  0x89, 0x7d, 0x37, 0xbe, 0x3d, 0x95, 0x54, 0xbe, 0xcb, 0x9a, 0x17, 0xbc,
  0xc6, 0xab, 0x76, 0xbd, 0x7a, 0x05, 0x59, 0x3e, 0x11, 0x4b, 0x4d, 0x3d,
  0x7c, 0x0d, 0x19, 0xbd, 0x74, 0x5e, 0x11, 0xbd, 0x4e, 0xab, 0x82, 0x3d,
  0x53, 0x0c, 0x8f, 0x3d, 0x79, 0xe0, 0x61, 0xbe, 0x28, 0xd5, 0x17, 0xbe,
  0x04, 0xbf, 0x51, 0xbd, 0xfa, 0x9e, 0xed, 0xbd, 0xa0, 0x8f, 0x8a, 0xbd,
  0x5e, 0x67, 0x50, 0x3e, 0xef, 0xe1, 0x60, 0x3e, 0x5e, 0xf3, 0xf8, 0x3d,
  0x01, 0xee, 0x09, 0xbc, 0xf5, 0xed, 0xd2, 0x3c, 0x9a, 0xeb, 0x57, 0x3e,
  0xa7, 0xaf, 0xa8, 0xbd, 0x53, 0xff, 0x3f, 0xbe, 0xf3, 0x12, 0x57, 0xbe,
  0xb1, 0xe4, 0x8b, 0x3d, 0x04, 0x56, 0x30, 0xbe, 0xd0, 0x8d, 0x4a, 0xbc,
  0x67, 0xeb, 0x17, 0xbd, 0x21, 0xa9, 0x0a, 0x3e, 0x41, 0x43, 0x2a, 0xbe,
  0xfd, 0xa6, 0x0e, 0xbe, 0xb7, 0x51, 0x0a, 0x3e, 0xfc, 0x15, 0x9f, 0x3d,
  0x86, 0x73, 0x53, 0x3e, 0xc9, 0x4e, 0x27, 0xbd, 0x01, 0x49, 0x4c, 0x3d,
  0x4c, 0xee, 0x6e, 0x3e, 0xf0, 0x31, 0x44, 0xbe, 0x5e, 0x76, 0x27, 0x3e,
  0x34, 0xe2, 0xbe, 0x3e, 0xf0, 0x64, 0x1c, 0xbe, 0xb1, 0xac, 0x05, 0x3e,
  0x78, 0x0c, 0xc6, 0x3e, 0x09, 0x3e, 0xed, 0x3d, 0x52, 0x61, 0x20, 0x3e,
  0x9a, 0x44, 0xa0, 0x3e, 0x88, 0x4c, 0xad, 0xbd, 0xd4, 0x4a, 0x28, 0x3e,
  0xbd, 0x0c, 0x25, 0x3e, 0x27, 0xe8, 0x14, 0x3c, 0xbb, 0x43, 0x47, 0x3a,
  0x04, 0x59, 0x20, 0x3d, 0x9d, 0xa0, 0xc3, 0x3c, 0x44, 0x58, 0xfc, 0xbc,
  0x15, 0x10, 0xb4, 0x3c, 0xb5, 0x00, 0xad, 0xbc, 0xa3, 0xa9, 0x9c, 0x3e,
  0x67, 0x72, 0x8c, 0x3d, 0x7a, 0xef, 0xdc, 0x3d, 0x49, 0x56, 0x24, 0xbe,
  0xb9, 0x25, 0x2b, 0x3e, 0xca, 0xee, 0x0d, 0xbd, 0xe0, 0xb2, 0x2f, 0xba,
  0x99, 0xb0, 0x82, 0x3e, 0x9b, 0x8e, 0x4f, 0xbe, 0x9a, 0xc5, 0x51, 0xbe,
  0xa5, 0xb1, 0xb4, 0x3d, 0x90, 0x32, 0x0a, 0x3e, 0x14, 0x74, 0x7a, 0xbc,
  0x3c, 0xe1, 0x5d, 0x3d, 0x82, 0xdb, 0xd8, 0x3d, 0x8a, 0x34, 0x30, 0xbe,
  0x61, 0xfd, 0x13, 0x3e, 0xcf, 0xa5, 0x2b, 0x3e, 0x47, 0x06, 0x0b, 0x3e,
  0xcd, 0x81, 0x0a, 0x3e, 0x6e, 0xce, 0x4c, 0x3d, 0x4a, 0x5f, 0x61, 0xbe,
  0xc5, 0x5e, 0x2e, 0x3e, 0x80, 0x70, 0x19, 0x3e, 0xfb, 0xea, 0x55, 0x3e,
  0x6c, 0x57, 0xf3, 0xbd, 0x33, 0xff, 0x8b, 0xbe, 0xaa, 0xfc, 0x35, 0xbd,
  0xa6, 0xed, 0xa0, 0xbd, 0x42, 0x58, 0xa0, 0x3d, 0xcd, 0x90, 0xc1, 0x3c,
  0xd1, 0xb8, 0x17, 0x3e, 0x4f, 0x77, 0x2c, 0xbe, 0xdf, 0x62, 0x16, 0xbe,
  0xd7, 0xc4, 0x07, 0xbe, 0x46, 0xdc, 0x36, 0xbe, 0x76, 0xe1, 0x5a, 0xbe,
  0x47, 0x1f, 0x25, 0x3b, 0x60, 0x64, 0x35, 0xbe, 0xaf, 0xd6, 0x99, 0xbd,
  0x42, 0x60, 0x66, 0xbe, 0xe8, 0x97, 0x88, 0xbd, 0x4c, 0x66, 0x00, 0x3e,
  0x45, 0x1d, 0x43, 0xbe, 0x3c, 0x1d, 0x59, 0xbe, 0x6c, 0x97, 0x23, 0xbd,
  0xa8, 0x0b, 0x65, 0x3e, 0x16, 0x7d, 0xc4, 0xbd, 0x22, 0x8d, 0xd6, 0xbd,
  0xa1, 0xe7, 0xe9, 0xbd, 0x8e, 0xff, 0x38, 0x3e, 0x04, 0x33, 0xcf, 0xbd,
  0x94, 0xa0, 0x53, 0x3e, 0x00, 0x83, 0x74, 0xbd, 0xec, 0xed, 0x66, 0xbe,
  0x60, 0x28, 0x52, 0x3d, 0xf8, 0xea, 0x14, 0x3e, 0xd1, 0xc6, 0x69, 0xbe,
  0x18, 0xa2, 0x82, 0xbc, 0xf0, 0x1b, 0x49, 0x3e, 0x00, 0xed, 0x86, 0x3a,
  0x29, 0xa4, 0xf3, 0xbd, 0xf4, 0x15, 0xfd, 0xbd, 0xfa, 0xb2, 0x1a, 0x3e,
  0x80, 0x62, 0x70, 0xbb, 0xa0, 0x31, 0xca, 0x3b, 0x21, 0x55, 0x26, 0xbe,
  0xec, 0x82, 0xd1, 0x3d, 0x30, 0xf1, 0x81, 0xbc, 0xc6, 0xa4, 0x4d, 0x3e,
  0x02, 0xce, 0x1c, 0xbe, 0x30, 0xce, 0xf3, 0x3c, 0xb4, 0x86, 0xf6, 0x3d,
  0x69, 0xef, 0x3e, 0xbe, 0x3c, 0xde, 0xdb, 0x3d, 0x68, 0x3b, 0x09, 0x3d,
  0x48, 0xc7, 0x6d, 0x3e, 0xd0, 0xaf, 0xe7, 0x3c, 0x84, 0xda, 0x28, 0xbe,
  0xe6, 0x71, 0xc9, 0xbd, 0x4c, 0xd6, 0x28, 0x3e, 0x7c, 0xaf, 0x7a, 0xbd,
  0xe0, 0x88, 0x25, 0xbe, 0xf6, 0xd6, 0x36, 0xbe, 0xac, 0x67, 0x68, 0xbd,
  0xfc, 0xc0, 0x92, 0x3d, 0x40, 0x90, 0xf0, 0xbd, 0x22, 0x9e, 0x11, 0x3e,
  0x55, 0x64, 0x0e, 0xbe, 0x10, 0xda, 0x88, 0x3d, 0x05, 0xf2, 0x47, 0xbe,
  0xab, 0x8f, 0xed, 0xbd, 0x40, 0x9d, 0x83, 0x3b, 0xa2, 0x67, 0xbd, 0xbd,
  0xc6, 0x93, 0x31, 0xbe, 0xc4, 0x73, 0x56, 0xbd, 0x12, 0x98, 0xfa, 0xbd,
  0xc4, 0x8e, 0xda, 0xbd, 0xa4, 0x1d, 0x39, 0x3e, 0x2c, 0x3c, 0xec, 0x3d,
  0x81, 0xc9, 0x5c, 0x3d, 0x1b, 0xf5, 0x08, 0x3e, 0x11, 0xec, 0x85, 0xbe,
  0xdc, 0x93, 0xa0, 0x3d, 0xe6, 0x9c, 0x14, 0xbd, 0xa7, 0x61, 0x7b, 0xbe,
  0x22, 0x17, 0x9c, 0xbd, 0xc0, 0xab, 0xaa, 0x3e, 0xff, 0x77, 0xa3, 0xbd,
  0x18, 0xe2, 0x10, 0x3e, 0xdd, 0x0a, 0x39, 0x3e, 0x23, 0x2c, 0xb0, 0xbe,
  0x29, 0x2c, 0x45, 0x3e, 0x6f, 0xcb, 0x8c, 0x3e, 0x5e, 0x7e, 0xdf, 0xbd,
  0x2c, 0x36, 0xdc, 0xbc, 0x1b, 0x3a, 0x45, 0x3e, 0xf7, 0x87, 0xd9, 0xbe,
  0xce, 0x81, 0x11, 0x3e, 0xae, 0xcb, 0x84, 0x3e, 0x14, 0x94, 0x14, 0xbe,
  0x0f, 0x3e, 0x0b, 0x3e, 0x44, 0xaa, 0xb8, 0x3e, 0x3b, 0xaf, 0x62, 0xbe,
  0x89, 0x0d, 0xd3, 0x3d, 0xd4, 0xe6, 0x51, 0x3e, 0xb9, 0xef, 0xfa, 0xbe,
  0x5b, 0x87, 0x9b, 0x3d, 0xb8, 0x3b, 0x17, 0x3e, 0xaf, 0xb9, 0x0e, 0xbe,
  0x20, 0x3e, 0xd7, 0x3d, 0xb1, 0xcc, 0x55, 0x3d, 0x98, 0x69, 0x5f, 0xbe,
  0xa5, 0xb5, 0xd0, 0x3c, 0xa0, 0x9b, 0x9e, 0x3c, 0xfe, 0x0f, 0x8b, 0xbe,
  0x8b, 0xf0, 0x32, 0x3e, 0xac, 0x23, 0xb3, 0xbd, 0x63, 0x4c, 0x62, 0xbe,
  0xf4, 0x8a, 0xa7, 0x3e, 0x8a, 0x2f, 0x77, 0x3d, 0x11, 0x54, 0x42, 0xbe,
  0x45, 0x90, 0x62, 0x3e, 0xa1, 0xa6, 0xaa, 0x3e, 0x81, 0x04, 0x12, 0xbd,
  0x3d, 0x4b, 0x6a, 0x3d, 0x9f, 0x44, 0x43, 0x3e, 0xe3, 0x3b, 0x7e, 0xbe,
  0x9a, 0xe9, 0x6d, 0x3e, 0x7b, 0x78, 0x89, 0x3e, 0x89, 0x1c, 0x92, 0xbe,
  0x46, 0x40, 0x84, 0x3d, 0x04, 0x66, 0x17, 0x3d, 0x6d, 0x9a, 0x09, 0xbe,
  0x61, 0x21, 0x7e, 0x3e, 0x74, 0xc1, 0x71, 0xbb, 0x84, 0x0b, 0x3b, 0xbe,
  0x05, 0x85, 0xa9, 0x3e, 0xc4, 0x58, 0xa4, 0x3c, 0x50, 0x8e, 0x88, 0xbe,
  0x24, 0x02, 0xe4, 0x3d, 0x94, 0xae, 0x9f, 0x3d, 0x84, 0x9a, 0xb6, 0x3d,
  0x18, 0x70, 0x44, 0x3d, 0x08, 0x7a, 0x46, 0xbe, 0xcc, 0x2e, 0x55, 0xbe,
  0x7a, 0xd6, 0xbe, 0xbd, 0x34, 0x71, 0xbb, 0xbd, 0x30, 0x02, 0xbe, 0x3d,
  0xf0, 0x76, 0x64, 0x3c, 0x1c, 0xeb, 0x28, 0xbe, 0xbc, 0x21, 0x27, 0x3e,
  0x9c, 0xe0, 0x67, 0xbe, 0x8c, 0x97, 0x46, 0xbe, 0x48, 0x31, 0xe3, 0x3d,
  0x16, 0x7b, 0x38, 0x3e, 0x14, 0x2d, 0xa6, 0xbd, 0x34, 0x10, 0x2c, 0xbe,
  0x98, 0x29, 0xc1, 0xbd, 0xc0, 0x04, 0x8b, 0x3b, 0xd7, 0xee, 0xea, 0xbd,
  0xc8, 0x66, 0x19, 0x3d, 0x8c, 0x2d, 0x89, 0x3d, 0x1c, 0x80, 0x8e, 0xbd,
  0x2c, 0x0d, 0x05, 0xbd, 0x18, 0xf6, 0x4b, 0x3e, 0xe8, 0x5d, 0xc4, 0x3d,
  0xe8, 0x27, 0x34, 0x3e, 0x70, 0xa2, 0x24, 0x3e, 0xd8, 0xf5, 0x9e, 0xbd,
  0xcf, 0xac, 0x32, 0xbe, 0x20, 0x9f, 0xb5, 0xbb, 0xec, 0x22, 0x6d, 0xbd,
  0x30, 0xcc, 0x72, 0xbc, 0xc2, 0xb6, 0x69, 0xbe, 0x4d, 0x71, 0x4e, 0xbe,
  0xca, 0xaf, 0x07, 0x3e, 0x3d, 0x9f, 0x24, 0xbe, 0x68, 0x2e, 0x6c, 0xbe,
  0x88, 0x4f, 0x67, 0x3e, 0xbc, 0x5c, 0x03, 0xbe, 0xf7, 0x5f, 0x67, 0xbe,
  0xb4, 0x27, 0xff, 0xbd, 0x04, 0xd3, 0x42, 0x3e, 0x82, 0x07, 0x0e, 0x3e,
  0x28, 0x9d, 0x62, 0x3e, 0x3c, 0xa7, 0x00, 0xbd, 0x78, 0xa9, 0x07, 0x3e,
  0xa3, 0x24, 0xfd, 0xbd, 0x58, 0x81, 0x80, 0x3d, 0x70, 0xf4, 0xbc, 0x3d,
  0x98, 0x76, 0x73, 0x3d, 0x10, 0x6c, 0x28, 0x3d, 0x16, 0x6c, 0x82, 0xbd,
  0xa8, 0x31, 0x56, 0xbe, 0xbe, 0xee, 0x0b, 0x3e, 0xa8, 0x46, 0xd9, 0xbc,
  0xb0, 0x0d, 0x2c, 0xbe, 0x04, 0x5e, 0x51, 0xbe, 0x5d, 0x4e, 0x3d, 0xbe,
  0x25, 0xd7, 0x68, 0xbe, 0x52, 0x62, 0x2b, 0x3e, 0xda, 0x8b, 0xf4, 0x3b,
  0x86, 0x35, 0x65, 0xbe, 0xe8, 0xd4, 0x77, 0xbe, 0xde, 0xc9, 0x40, 0xbe,
  0x6c, 0x6c, 0xd0, 0xbd, 0x6a, 0xd4, 0x74, 0xbd, 0x92, 0xaa, 0x71, 0xbc,
  0x4f, 0xe8, 0xdf, 0xbc, 0x2a, 0x5c, 0xde, 0x3d, 0xfa, 0x41, 0x15, 0x3e,
  0x89, 0xb1, 0x9b, 0x3d, 0x64, 0xab, 0x80, 0x3d, 0xee, 0x18, 0xf1, 0xbd,
  0x20, 0x79, 0x57, 0xbe, 0x4e, 0x12, 0x42, 0xbe, 0x03, 0x7c, 0x44, 0x3e,
  0x9d, 0x3f, 0x82, 0xbe, 0x38, 0xd9, 0x11, 0x3a, 0x16, 0x54, 0xac, 0x3d,
  0xec, 0x66, 0xd1, 0x3d, 0x40, 0xba, 0x07, 0x3e, 0x25, 0x3a, 0x06, 0x3d,
  0x2d, 0x22, 0x1e, 0xbe, 0xa0, 0x4e, 0xfb, 0xbd, 0x80, 0x39, 0x43, 0x3e,
  0xab, 0xcd, 0xcd, 0x3d, 0xec, 0x5c, 0x30, 0xbe, 0x27, 0x5a, 0xfa, 0xbd,
  0x34, 0x58, 0x26, 0x3e, 0xaf, 0xef, 0x67, 0xbe, 0x7b, 0x4b, 0xc7, 0xbc,
  0xb3, 0x63, 0xa9, 0xbd, 0x66, 0xc8, 0x1b, 0x3e, 0xbe, 0x1c, 0x7e, 0xbe,
  0x4e, 0xce, 0x34, 0x3e, 0x30, 0x80, 0x50, 0xbe, 0x84, 0x95, 0x13, 0x3e,
  0xbb, 0xec, 0x5e, 0xbc, 0xb9, 0x73, 0xac, 0x3d, 0xfe, 0x90, 0x51, 0xbe,
  0x54, 0xac, 0x36, 0xbe, 0x11, 0xec, 0xe6, 0x3d, 0xd4, 0x7c, 0x32, 0xbe,
  0xe0, 0x27, 0x8b, 0xbd, 0x5d, 0x85, 0x15, 0x3e, 0x32, 0x47, 0x77, 0xbe,
  0x0b, 0x74, 0x1f, 0x3e, 0xb6, 0x9b, 0xe1, 0xbd, 0xc5, 0x4a, 0x3c, 0x3e,
  0xb3, 0xa3, 0x9a, 0x3d, 0x39, 0xb6, 0xa1, 0x3d, 0x1c, 0x08, 0xdb, 0xbd,
  0x91, 0x2a, 0x09, 0xbe, 0x79, 0x57, 0x36, 0x3e, 0x9f, 0xad, 0x29, 0xbe,
  0x11, 0x3c, 0x3a, 0x3d, 0x1e, 0x93, 0x39, 0x3e, 0x0b, 0x38, 0x2b, 0xbe,
  0x65, 0x3d, 0x81, 0xbb, 0x8e, 0x11, 0x12, 0xbe, 0xba, 0x22, 0x58, 0x3e,
  0x7d, 0x91, 0xaa, 0x3e, 0x32, 0x31, 0xba, 0xbc, 0x4b, 0xa3, 0x37, 0x3d,
  0x8a, 0x48, 0xba, 0x3e, 0x0f, 0xb4, 0x3e, 0x3e, 0x7e, 0xde, 0x8a, 0xbd,
  0xbb, 0x7b, 0xa8, 0x3e, 0xba, 0x68, 0x07, 0x3e, 0x10, 0xa0, 0x95, 0xbd,
  0x59, 0xb4, 0xec, 0x3c, 0x8f, 0xf2, 0xbe, 0xbd, 0xdc, 0x44, 0xe7, 0x3d,
  0xaf, 0x52, 0x19, 0x3e, 0xe5, 0x31, 0x3a, 0x3d, 0xfb, 0x3b, 0x2f, 0xbd,
  0xa8, 0xe6, 0x7d, 0x3e, 0xfe, 0x5d, 0x24, 0x3e, 0xca, 0x81, 0x5c, 0x3e,
  0x96, 0x9c, 0xb1, 0x3e, 0x23, 0x38, 0xfa, 0x3d, 0xb9, 0x35, 0x98, 0xbb,
  0x10, 0x21, 0x39, 0xbd, 0x66, 0xd8, 0x19, 0xbe, 0xac, 0xe7, 0x22, 0xbc,
  0xc2, 0x00, 0x69, 0x3e, 0xb2, 0xf0, 0x36, 0x3e, 0xf7, 0x1a, 0x4d, 0x3d,
  0x50, 0xcd, 0xb3, 0xbc, 0xdb, 0x72, 0xa5, 0xbd, 0x25, 0xea, 0x13, 0x3e,
  0x9c, 0x52, 0x58, 0xbe, 0xa1, 0x91, 0x51, 0xbe, 0x68, 0x61, 0xbb, 0xbd,
  0x76, 0x28, 0x9d, 0x3d, 0xb8, 0x70, 0x27, 0xbe, 0x35, 0xaa, 0x0d, 0x3e,
  0x1b, 0xef, 0x62, 0x3e, 0xed, 0x9b, 0xe6, 0xbc, 0xcf, 0xd4, 0x1b, 0xbd,
  0x5b, 0x27, 0x14, 0xbd, 0x1e, 0x1d, 0x36, 0xbe, 0xe6, 0xef, 0x82, 0xbe,
  0xf3, 0xbe, 0x66, 0xbe, 0x9d, 0xfb, 0xee, 0x3d, 0x02, 0xda, 0x41, 0xbe,
  0x05, 0x58, 0x49, 0xbe, 0x42, 0x68, 0x25, 0xbe, 0x36, 0x65, 0x78, 0xbe,
  0xe4, 0xf7, 0xef, 0x3d, 0xcb, 0x79, 0x4a, 0x3e, 0xc8, 0xe2, 0xc3, 0xbd,
  0x08, 0xb2, 0x08, 0xbe, 0xd0, 0x1c, 0x97, 0xba, 0x62, 0xf3, 0xf6, 0xbd,
  0x46, 0x6c, 0x35, 0x3e, 0x0f, 0x77, 0xc3, 0x3d, 0x22, 0x0f, 0x7b, 0xbe,
  0x03, 0x87, 0x90, 0xbe, 0x01, 0x63, 0xf1, 0xbd, 0x45, 0x46, 0xa3, 0x3d,
  0x66, 0xad, 0x09, 0xbf, 0x9a, 0xa3, 0xdc, 0x3c, 0x7a, 0x02, 0x29, 0x3d,
  0x26, 0x66, 0xd9, 0xbe, 0xf9, 0xcf, 0x10, 0x3c, 0xe1, 0x29, 0x48, 0xbd,
  0xf8, 0x03, 0x7d, 0xbe, 0xf6, 0x05, 0x71, 0x3e, 0xe3, 0xfd, 0x77, 0x3e,
  0x16, 0xf7, 0x49, 0xbe, 0xc2, 0x96, 0xf2, 0xbd, 0x45, 0xbb, 0x25, 0xbd,
  0xa3, 0xc2, 0x00, 0xbf, 0x07, 0xbd, 0xce, 0x3d, 0x77, 0x11, 0xc6, 0x3d,
  0x8f, 0xa5, 0x21, 0xbe, 0xa5, 0x63, 0xa7, 0xbd, 0xd4, 0x2c, 0x80, 0x3e,
  0x4b, 0x5f, 0xa2, 0xbe, 0x33, 0x8d, 0xce, 0xbd, 0x0b, 0xe2, 0xa7, 0x3e,
  0x07, 0xf3, 0x01, 0xbf, 0x4b, 0x20, 0x35, 0xbc, 0x6f, 0xe7, 0x03, 0x3e,
  0x23, 0x18, 0x81, 0xbc, 0xe1, 0x44, 0xc2, 0x3d, 0x5f, 0x15, 0x0d, 0x3e,
  0x51, 0x4a, 0x01, 0x3e, 0xc9, 0xb5, 0x89, 0x3e, 0x95, 0xba, 0xe8, 0x3d,
  0xbb, 0x6a, 0x81, 0xbe, 0xee, 0xa5, 0x50, 0x3e, 0x69, 0xb2, 0x65, 0xbd,
  0x80, 0x63, 0x17, 0xbd, 0x0e, 0xb5, 0x87, 0x3e, 0x18, 0x61, 0x7d, 0x3e,
  0x74, 0x88, 0xee, 0x3d, 0x46, 0x0f, 0x22, 0xbd, 0xf3, 0xbe, 0xcd, 0x3d,
  0xeb, 0x70, 0x7b, 0x3d, 0xac, 0xe1, 0x7d, 0x3e, 0x2d, 0x5c, 0x7a, 0x3c,
  0x1b, 0xf9, 0x23, 0xbe, 0x7e, 0xa0, 0x2f, 0xbd, 0x74, 0x6d, 0xda, 0xbd,
  0x79, 0xc7, 0x98, 0xbe, 0x87, 0x24, 0x80, 0x3d, 0x81, 0xb9, 0xf2, 0x3d,
  0xfb, 0x87, 0x95, 0xbe, 0x14, 0x86, 0x21, 0x3e, 0x38, 0xb7, 0xd0, 0x3d,
  0x55, 0x56, 0x26, 0xbd, 0x7b, 0xef, 0x59, 0x3e, 0xa7, 0x8d, 0x39, 0x3c,
  0x4e, 0x22, 0x91, 0xbe, 0x62, 0x47, 0xe0, 0x3d, 0x9a, 0x2f, 0x74, 0xbd,
  0x82, 0x40, 0x2f, 0x3e, 0xd5, 0xb4, 0x06, 0xbe, 0x93, 0x32, 0x25, 0xbe,
  0xd5, 0xf9, 0xd8, 0x3d, 0x04, 0xd7, 0x00, 0x3e, 0x70, 0x89, 0xf9, 0xbe,
  0xf7, 0xa5, 0x80, 0x3c, 0x15, 0x9e, 0xee, 0xbc, 0x3c, 0x46, 0xd1, 0xbe,
  0x0d, 0x63, 0x2d, 0x3d, 0xd4, 0x2c, 0x46, 0x3e, 0x3e, 0x12, 0x82, 0xbd,
  0x79, 0xe4, 0x55, 0x3d, 0xfd, 0xcc, 0x05, 0xbe, 0x19, 0x7e, 0x8b, 0xbe,
  0x17, 0xb0, 0x34, 0x3e, 0x25, 0x26, 0x13, 0xbe, 0xc6, 0x58, 0xaa, 0xbe,
  0xa8, 0x45, 0xf4, 0xbc, 0x81, 0x85, 0x68, 0x3e, 0x60, 0x7a, 0x8d, 0xbe,
  0x15, 0xe1, 0x99, 0xbd, 0x62, 0x92, 0x0d, 0x3e, 0xf5, 0x09, 0xd3, 0xbe,
  0x02, 0x18, 0x55, 0x3e, 0xb2, 0x33, 0x5d, 0x3d, 0xf4, 0x52, 0x1a, 0xbe,
  0x9e, 0x4a, 0x30, 0xbe, 0xe8, 0xf3, 0x9f, 0x3d, 0xc1, 0x31, 0x63, 0xbe,
  0x02, 0xd3, 0x5f, 0x3e, 0x09, 0xcb, 0x7a, 0x3e, 0xc1, 0xe9, 0x5e, 0xbe,
  0x6c, 0xca, 0x27, 0x3e, 0x83, 0xbe, 0x42, 0xbd, 0x36, 0xce, 0x39, 0xbe,
  0x9a, 0x16, 0x18, 0xbe, 0x80, 0xcc, 0x31, 0x3c, 0x67, 0xa5, 0xc7, 0xbb,
  0x98, 0x44, 0x29, 0x3d, 0x07, 0xf0, 0x72, 0x3d, 0x23, 0x7a, 0xb9, 0xbe,
  0x5b, 0xac, 0xb4, 0x3d, 0x8e, 0x83, 0x4d, 0x3e, 0x2b, 0xaf, 0xcf, 0xbe,
  0x1e, 0x04, 0x0a, 0xbe, 0xa8, 0x64, 0x98, 0x3d, 0x3b, 0x31, 0xba, 0xbe,
  0x86, 0xa8, 0x57, 0x3e, 0x22, 0x6e, 0x53, 0x3d, 0x3a, 0x57, 0x3b, 0xbe,
  0x59, 0xd8, 0x01, 0x3e, 0x3d, 0xf8, 0x86, 0x3e, 0x1c, 0x10, 0x4c, 0xbe,
  0xed, 0x26, 0x16, 0x3d, 0x66, 0x17, 0xd6, 0x3d, 0xc1, 0xfe, 0xba, 0xbe,
  0xc5, 0xea, 0x33, 0x3e, 0x35, 0x6f, 0x61, 0x3d, 0x69, 0x9e, 0xbe, 0xbe,
  0x44, 0xab, 0x0a, 0x3f, 0xc7, 0x51, 0xf8, 0x3e, 0xbf, 0xb4, 0x15, 0x3f,
  0x5e, 0xdf, 0xd7, 0x3e, 0xa8, 0xda, 0xea, 0x3e, 0xfd, 0xe5, 0x4c, 0x3e,
  0xc9, 0x39, 0xf5, 0x3e, 0x0d, 0x19, 0xd0, 0x3e, 0xf6, 0x2c, 0x1b, 0x3f,
  0x97, 0x0d, 0x8e, 0x3e, 0x14, 0x52, 0xd4, 0x3d, 0x3e, 0x75, 0xee, 0x3e,
  0xdc, 0x94, 0xcb, 0x3e, 0x31, 0x96, 0x12, 0x3e, 0x59, 0x8e, 0x33, 0x3e,
  0x1c, 0x0e, 0x9f, 0x3e, 0x91, 0xd1, 0xe1, 0x3e, 0xff, 0x6b, 0xb4, 0x3e,
  0x36, 0xd1, 0xb0, 0x3e, 0x70, 0x5f, 0x0e, 0x3f, 0x71, 0x08, 0x71, 0x3e,
  0x19, 0x4d, 0x3a, 0x3e, 0xf5, 0x3b, 0x9e, 0x3e, 0x9c, 0xa7, 0xd8, 0x3e,
  0xcf, 0x59, 0x0f, 0x3f, 0x78, 0xad, 0xdc, 0x3e, 0x9e, 0x3c, 0x85, 0x3e,
  0xce, 0x6d, 0xf2, 0x3e, 0x4a, 0x63, 0x9b, 0x3e, 0x7d, 0x41, 0x57, 0x3e,
  0x8b, 0x3c, 0xfe, 0x3e, 0xce, 0x8d, 0x00, 0x3e, 0xe0, 0xba, 0xd1, 0x3e,
  0x6a, 0x20, 0x8e, 0x3e, 0x04, 0x59, 0x72, 0x3e, 0xbe, 0x5d, 0x53, 0x3e,
  0x4c, 0xee, 0xc8, 0x3e, 0x0b, 0x83, 0x00, 0x3f, 0xa0, 0x01, 0xd9, 0x3e,
  0x5c, 0xc8, 0x07, 0x3f, 0x29, 0x52, 0xbc, 0x3e, 0x14, 0x36, 0x39, 0x3e,
  0xd5, 0xaa, 0xca, 0x3e, 0x0f, 0xcd, 0x6d, 0x3e, 0x47, 0xf1, 0xca, 0x3e,
  0x03, 0xfe, 0x01, 0x3e, 0xf4, 0x5e, 0x0c, 0x3e, 0xd8, 0xfa, 0xd9, 0x3e,
  0x12, 0x5a, 0x12, 0x3e, 0x8e, 0x23, 0x11, 0x3f, 0x4c, 0xd4, 0x9b, 0x3e,
  0x63, 0x7a, 0xe3, 0x3e, 0x3a, 0x97, 0x04, 0x3f, 0x63, 0xb5, 0xaa, 0x3e,
  0xd7, 0xda, 0x8d, 0x3e, 0xd6, 0x30, 0x16, 0x3e, 0x8c, 0x08, 0xa9, 0x3d,
  0x59, 0x19, 0x26, 0x3e, 0xcb, 0xa0, 0xab, 0x3e, 0x4f, 0x7e, 0xa6, 0x3e,
  0x45, 0xa9, 0x28, 0x3d, 0x0d, 0xc2, 0xab, 0x3d, 0x96, 0x6c, 0x0c, 0xbd,
  0x1d, 0xcb, 0x20, 0x3c, 0x8a, 0x81, 0x50, 0x3e, 0x09, 0xd1, 0x00, 0xbb,
  0xce, 0x3f, 0xb0, 0x3e, 0xd3, 0xd3, 0x61, 0x3d, 0x86, 0xb6, 0xb8, 0x3e,
  0x0e, 0x07, 0x58, 0x3e, 0x7c, 0x22, 0xde, 0xbd, 0x16, 0x0a, 0xbc, 0x3e,
  0x91, 0xb3, 0x7f, 0x3e, 0xb3, 0x08, 0x01, 0x3d, 0x4a, 0xc0, 0x46, 0x3c,
  0x31, 0x96, 0xe5, 0x3d, 0x64, 0x8a, 0xf9, 0x3d, 0xc6, 0xb6, 0x41, 0x3c,
  0xc0, 0x8a, 0x2f, 0x3d, 0xa4, 0xe7, 0x54, 0x3e, 0x5e, 0x66, 0xc9, 0x3e,
  0x33, 0x8d, 0x6f, 0x3e, 0xb4, 0xb9, 0x52, 0x3e, 0xb3, 0x52, 0xcc, 0x3e,
  0xf1, 0xa1, 0x04, 0x3e, 0x1c, 0x2f, 0x02, 0x3e, 0x87, 0xac, 0x33, 0xbd,
  0x13, 0x56, 0x63, 0xbc, 0x1b, 0x1d, 0xee, 0x3d, 0x42, 0xf3, 0x06, 0x3e,
  0xfd, 0xda, 0x5c, 0x3e, 0xf3, 0x12, 0x2c, 0x3e, 0x6d, 0x01, 0x5f, 0xbe,
  0xc7, 0xbe, 0x5e, 0x3e, 0xc6, 0xd8, 0x88, 0x3d, 0x1a, 0xeb, 0x61, 0xbd,
  0xa3, 0x58, 0xe1, 0xbd, 0x1a, 0x2a, 0x1d, 0xbe, 0x1f, 0x4b, 0x4b, 0x3e,
  0xdc, 0xfa, 0xa2, 0xbd, 0xde, 0x4b, 0x92, 0x3d, 0x74, 0x6d, 0x69, 0xbd,
  0x7d, 0xbb, 0x7d, 0x3e, 0xfd, 0x1b, 0x47, 0xbc, 0xb7, 0x91, 0x04, 0xbe,
  0x97, 0xeb, 0x6d, 0xbd, 0x5e, 0x94, 0x4a, 0x3e, 0xd2, 0x79, 0xaa, 0x3d,
  0xb0, 0xcf, 0xff, 0xbd, 0x1d, 0xba, 0x63, 0xbd, 0x93, 0x56, 0x27, 0x3e,
  0xef, 0xf7, 0x14, 0x3c, 0x67, 0xb3, 0x33, 0x3e, 0x4b, 0xcd, 0xa9, 0xbc,
  0xf9, 0x6b, 0x04, 0xbd, 0xa5, 0x1b, 0x10, 0x3e, 0xf2, 0x85, 0x23, 0xbe,
  0xd8, 0x63, 0x30, 0x3e, 0x27, 0x9c, 0x83, 0x3e, 0xcd, 0x31, 0x5b, 0x3e,
  0x73, 0x0a, 0x8e, 0x3e, 0x37, 0x9c, 0x6c, 0xbe, 0x0f, 0x45, 0x13, 0x3e,
  0x03, 0x32, 0x10, 0x3e, 0x07, 0x03, 0xa9, 0xbd, 0x93, 0x99, 0x80, 0x3e,
  0xf3, 0xf9, 0xcc, 0x3e, 0x93, 0x96, 0x27, 0x3e, 0xb8, 0xad, 0x8e, 0x3e,
  0x6b, 0xa4, 0xc5, 0x3b, 0x67, 0xfc, 0x8b, 0xbe, 0x18, 0x54, 0x4f, 0x3d,
  0x6b, 0x48, 0x4d, 0x3e, 0xfd, 0xa5, 0x18, 0xbe, 0xd4, 0xe3, 0x88, 0x3e,
  0x6f, 0xfb, 0x88, 0x3e, 0xd4, 0x4a, 0x68, 0xbd, 0x6c, 0x24, 0x0a, 0x3e,
  0x0c, 0xb2, 0xc6, 0x3e, 0xe2, 0x15, 0x07, 0x3e, 0x3c, 0xca, 0xb2, 0xbd,
  0xf6, 0x2f, 0xd1, 0x3d, 0x43, 0x56, 0x80, 0xbe, 0xcd, 0x34, 0x0a, 0xbe,
  0x83, 0x69, 0x70, 0x3d, 0x35, 0x9c, 0x35, 0xbe, 0xd4, 0x6c, 0x40, 0x3e,
  0x38, 0x3d, 0x1b, 0x3d, 0xbc, 0x63, 0xb1, 0xbd, 0x30, 0x6b, 0x2d, 0xbe,
  0x68, 0x7a, 0x45, 0xbe, 0xde, 0x43, 0x3e, 0x3d, 0x6d, 0x3c, 0xb3, 0xbd,
  0xf1, 0xdd, 0xaa, 0xbd, 0xd4, 0xd1, 0x24, 0x3e, 0xf6, 0xb2, 0x7e, 0x3d,
  0x9f, 0x90, 0x3c, 0x3e, 0x26, 0x54, 0x7f, 0x3d, 0xd9, 0x58, 0x73, 0xbe,
  0x12, 0xf0, 0x45, 0xbd, 0xbf, 0x8e, 0x1f, 0xbe, 0x6c, 0x86, 0x99, 0xbd,
  0x5e, 0x33, 0x34, 0x3e, 0xa0, 0x20, 0xee, 0xbd, 0x9f, 0x9c, 0xe8, 0x3d,
  0x68, 0x4b, 0x57, 0x3e, 0x6c, 0x7c, 0x81, 0x3d, 0x9f, 0xcd, 0x63, 0xbe,
  0xa0, 0x57, 0x15, 0x3e, 0x13, 0x1d, 0x82, 0xbd, 0x62, 0xf5, 0x40, 0x3e,
  0xe6, 0xec, 0xca, 0x3d, 0x02, 0xb6, 0xce, 0xbc, 0x4a, 0x56, 0x4f, 0xbd,
  0xd1, 0xea, 0x8a, 0xbc, 0x7c, 0x7f, 0x83, 0xbd, 0x35, 0xa6, 0x15, 0x3e,
  0x37, 0x78, 0x01, 0xbe, 0x3a, 0x70, 0x2d, 0xbe, 0xbc, 0x7b, 0xaf, 0x3d,
  0x4c, 0x61, 0x41, 0x3e, 0x40, 0xda, 0xb5, 0x3c, 0x80, 0x2d, 0xc7, 0xbc,
  0x5b, 0x81, 0x2a, 0xbe, 0xac, 0x66, 0xa7, 0xbd, 0x23, 0xb5, 0x41, 0xbe,
  0xf0, 0x6c, 0x79, 0x3c, 0x74, 0x6d, 0x10, 0xbe, 0xf4, 0x5e, 0x39, 0xbd,
  0xd7, 0x13, 0x20, 0xbe, 0x44, 0x14, 0x13, 0xbe, 0x1e, 0xc1, 0x2b, 0x3e,
  0x30, 0x90, 0x0d, 0x3d, 0xf4, 0x44, 0xa3, 0xbd, 0xfc, 0xd4, 0x46, 0xbd,
  0xb0, 0x17, 0x5a, 0x3c, 0x80, 0xd7, 0xa4, 0x3a, 0x8c, 0x5c, 0x21, 0xbe,
  0xa8, 0xe7, 0x70, 0x3d, 0x00, 0xe4, 0x71, 0x3d, 0xc0, 0x48, 0x40, 0x3d,
  0x60, 0x5d, 0xa8, 0x3c, 0xee, 0x45, 0x85, 0xbd, 0xb0, 0xc3, 0x96, 0xbd,
  0xbe, 0x53, 0xd1, 0xbd, 0xbc, 0x38, 0xcd, 0x3d, 0x91, 0xd0, 0x13, 0xbe,
  0x00, 0x11, 0xef, 0x3c, 0x64, 0x7c, 0x2c, 0xbe, 0xd0, 0x9e, 0x20, 0x3d,
  0x5c, 0x0f, 0x64, 0x3e, 0x2e, 0xee, 0xcd, 0xbd, 0x74, 0x66, 0x2d, 0xbe,
  0xdc, 0xce, 0xb5, 0xbd, 0x8e, 0xa3, 0x2f, 0xbe, 0xf4, 0x80, 0x48, 0xbe,
  0x50, 0x79, 0x52, 0xbd, 0x44, 0x64, 0x48, 0x3e, 0x4a, 0x25, 0x3c, 0x3e,
  0xc8, 0x66, 0x63, 0x3d, 0x28, 0x85, 0xd0, 0xbc, 0x20, 0x36, 0x4f, 0xbc,
  0x4c, 0xf2, 0xc0, 0xbd, 0x30, 0xe3, 0x9d, 0xbd, 0xcd, 0x51, 0x4d, 0xbe,
  0x84, 0xdf, 0x36, 0xbe, 0x58, 0x93, 0x44, 0xbe, 0x1a, 0x29, 0x29, 0xbe,
  0xd8, 0x2c, 0x79, 0x3d, 0x66, 0xdc, 0x4e, 0x3e, 0x30, 0x74, 0x4a, 0x3c,
  0x39, 0xe1, 0x0e, 0xbe, 0xc0, 0x00, 0x05, 0x3c, 0x68, 0x13, 0x63, 0x3d,
  0x4c, 0x6e, 0x46, 0xbe, 0x70, 0x57, 0x3b, 0xbc, 0x50, 0xb9, 0x6d, 0x3e,
  0xf4, 0x23, 0xd5, 0x3d, 0x10, 0x70, 0x8a, 0x3d, 0xee, 0x4a, 0x4a, 0xbe,
  0x20, 0xe2, 0xcf, 0x3c, 0x0c, 0xef, 0x95, 0xbd, 0xe8, 0x5f, 0x19, 0xbd,
  0xec, 0x30, 0x5f, 0xbe, 0x48, 0x41, 0x6a, 0xbe, 0xb4, 0x72, 0x24, 0xbe,
  0x00, 0xa3, 0x2c, 0xbe, 0xa8, 0x87, 0x0a, 0x3e, 0x60, 0x86, 0xb1, 0xbb,
  0x20, 0x6d, 0xf7, 0xbd, 0x14, 0xc7, 0x94, 0x3d, 0xc2, 0x00, 0x55, 0x3e,
  0x0b, 0x5e, 0x31, 0xbe, 0xd2, 0xab, 0xc4, 0xbd, 0x34, 0xdd, 0x1c, 0x3e,
  0xab, 0xa8, 0x4a, 0xbe, 0xe1, 0x18, 0x69, 0xbe, 0xd8, 0xa1, 0xd6, 0xbc,
  0xbc, 0x20, 0x87, 0xbd, 0xe0, 0xf6, 0x37, 0x3d, 0x76, 0xb1, 0x43, 0x3e,
  0x00, 0xb1, 0xf0, 0x3b, 0x60, 0xeb, 0x53, 0xbd, 0x24, 0xdb, 0x18, 0xbd,
  0x1d, 0x2a, 0x21, 0xbe, 0x19, 0x78, 0x5c, 0xbe, 0x80, 0x5c, 0x55, 0x3d,
  0xda, 0x14, 0x99, 0xbd, 0x86, 0xaf, 0x33, 0x3e, 0xcb, 0x5e, 0x4e, 0xbe,
  0x02, 0x6f, 0x55, 0x3e, 0xbc, 0xcd, 0xee, 0x3d, 0x90, 0xcc, 0xab, 0xbc,
  0xbc, 0xa4, 0x60, 0xbe, 0xd8, 0xcc, 0x1b, 0x3e, 0x00, 0x5e, 0xa8, 0x3d,
  0x29, 0xb6, 0x3a, 0xbe, 0x3a, 0x12, 0x35, 0xbe, 0xee, 0x18, 0x5a, 0x3e,
  0x14, 0x49, 0x90, 0x3d, 0xc4, 0xd0, 0x23, 0xbd, 0xfe, 0x07, 0x39, 0xbe,
  0x70, 0xc4, 0xcd, 0xbc, 0x74, 0xfb, 0x60, 0xbe, 0xc2, 0x4a, 0xc1, 0xbd,
  0xa0, 0xff, 0x38, 0x3e, 0xf0, 0x83, 0xf6, 0x3c, 0x20, 0xf0, 0x1d, 0x3d,
  0x94, 0xbf, 0x5e, 0x3e, 0xfa, 0xb4, 0x6b, 0xbe, 0xcd, 0x0b, 0xeb, 0xbd,
  0x3c, 0x17, 0x0c, 0x3e, 0xd8, 0xd1, 0x30, 0xbd, 0xe2, 0xa3, 0x15, 0xbe,
  0x89, 0x47, 0x33, 0xbe, 0x22, 0x76, 0x00, 0x3e, 0xf0, 0x57, 0x39, 0xbe,
  0x2c, 0xf6, 0x96, 0x3d, 0x5e, 0x98, 0x1d, 0xbe, 0x22, 0xd3, 0x1c, 0xbe,
  0x1d, 0xe0, 0x65, 0x3e, 0x57, 0x23, 0xfd, 0x3d, 0xe0, 0x34, 0x1c, 0x3e,
  0xce, 0xa9, 0x6e, 0x3d, 0xbf, 0xcf, 0xe3, 0x3d, 0x0f, 0xfa, 0xf0, 0x3d,
  0x3e, 0xde, 0xcd, 0xbd, 0xc6, 0xd2, 0x12, 0x3d, 0x5a, 0x58, 0x1f, 0xbd,
  0x7d, 0xa4, 0xaa, 0xbd, 0x3c, 0xd5, 0xfb, 0xbd, 0x7c, 0xa1, 0x06, 0x3e,
  0xfa, 0x04, 0xb2, 0x3d, 0x8d, 0x81, 0xfb, 0x3c, 0xf6, 0x13, 0x0c, 0xbe,
  0x91, 0xf7, 0x48, 0xbe, 0x49, 0x1d, 0x43, 0xbe, 0x86, 0xfa, 0x42, 0x3e,
  0x12, 0x18, 0xc2, 0xbc, 0xbf, 0x3c, 0x2f, 0x3e, 0xd1, 0xdb, 0x7f, 0xbd,
  0x5e, 0xa0, 0x63, 0x3d, 0x1c, 0xeb, 0x59, 0x3e, 0xc8, 0x70, 0x8a, 0x3d,
  0x7a, 0x48, 0x20, 0xbc, 0x06, 0x64, 0x71, 0xbe, 0xb4, 0x8a, 0x2e, 0xbe,
  0xed, 0xae, 0xa0, 0xbc, 0xde, 0xc2, 0x6b, 0xbe, 0x50, 0x23, 0x2e, 0xbe,
  0xd8, 0xf7, 0x24, 0x3e, 0x3c, 0x56, 0x55, 0xbe, 0x5d, 0xef, 0x4b, 0xbe,
  0x71, 0x4a, 0x95, 0xbd, 0x03, 0xbc, 0x84, 0xbd, 0x9a, 0xf6, 0x8e, 0x3d,
  0x2c, 0x30, 0x4b, 0x3e, 0x26, 0x21, 0xcf, 0xbc, 0xd7, 0xa5, 0x2c, 0x3d,
  0x4f, 0xd5, 0x2a, 0xbd, 0x70, 0xec, 0x5f, 0xbe, 0xe1, 0x83, 0x30, 0xbe,
  0x3b, 0xc3, 0x3a, 0xbe, 0x0f, 0xf8, 0x05, 0xbe, 0xb6, 0xa1, 0x6b, 0xbe,
  0x4e, 0xde, 0xe5, 0x3d, 0x23, 0x66, 0xc9, 0xbd, 0x6e, 0xdd, 0x00, 0xbe,
  0x6f, 0xca, 0xe8, 0xbd, 0x3a, 0xb7, 0xc8, 0x3d, 0x9a, 0x0c, 0x1a, 0x3d,
  0x98, 0xb5, 0xea, 0x3c, 0x57, 0x3c, 0x5c, 0x3e, 0x9e, 0x27, 0x88, 0xbd,
  0x98, 0x90, 0x13, 0xbe, 0xdc, 0x4d, 0x5f, 0x3e, 0x72, 0x1d, 0x2d, 0x3c,
  0xec, 0xfd, 0x68, 0x3e, 0xe4, 0x99, 0x57, 0xbe, 0xa4, 0x60, 0x5f, 0xbe,
  0x10, 0x40, 0xaa, 0x3e, 0xe6, 0x44, 0x89, 0x3e, 0x26, 0x5e, 0xa1, 0xbe,
  0x7c, 0xfc, 0x81, 0x3e, 0xbe, 0xc9, 0xd0, 0xbd, 0xca, 0x3d, 0x83, 0xbe,
  0xf7, 0xad, 0xd2, 0x3e, 0x4c, 0x33, 0x00, 0xbd, 0x41, 0xac, 0xa3, 0xbe,
  0x97, 0x38, 0x17, 0x3e, 0x0b, 0x7a, 0x95, 0x3e, 0x5b, 0x12, 0xb0, 0xbe,
  0xfb, 0xf0, 0x65, 0x3e, 0xab, 0x7d, 0xd7, 0x3d, 0x0d, 0x62, 0xd8, 0xbd,
  0xcf, 0x85, 0x9b, 0x3e, 0xff, 0x28, 0x46, 0x3e, 0x90, 0xd3, 0xb2, 0xbe,
  0x33, 0xee, 0x50, 0x3d, 0x7d, 0x47, 0x8f, 0x3e, 0x14, 0xc8, 0x24, 0x3d,
  0x78, 0xa6, 0xa3, 0x3e, 0x47, 0x16, 0x44, 0x3d, 0xad, 0x44, 0x11, 0xbe,
  0x98, 0xb0, 0x84, 0x3d, 0x53, 0x59, 0xc6, 0x3d, 0x0f, 0xd8, 0x8f, 0xbe,
  0x9e, 0x9a, 0x3a, 0x3e, 0xed, 0x8d, 0xec, 0x3d, 0xbc, 0x71, 0xff, 0x3d,
  0xa6, 0xdc, 0x2d, 0xbd, 0xde, 0x4c, 0xc1, 0xbd, 0x01, 0x82, 0x2a, 0xbe,
  0x9d, 0xe0, 0x04, 0xbc, 0xa8, 0xdf, 0x98, 0x3d, 0xba, 0x0f, 0x50, 0x3d,
  0xff, 0xe0, 0x2a, 0x3e, 0x9f, 0xb9, 0x8f, 0xbb, 0xe7, 0x2e, 0xd3, 0x3d,
  0x78, 0x3b, 0x6f, 0x3d, 0xc1, 0xd1, 0x82, 0x3e, 0xdd, 0x93, 0xaf, 0xbc,
  0x55, 0x55, 0x25, 0xbe, 0x4c, 0xeb, 0xa7, 0xbc, 0xc4, 0x49, 0x3d, 0xbd,
  0xa0, 0xb0, 0x87, 0x3e, 0xd0, 0x3b, 0x0b, 0x3d, 0x49, 0x26, 0x54, 0x3e,
  0x3c, 0x6f, 0x49, 0xbd, 0xbd, 0xc4, 0xf6, 0x3d, 0xdd, 0x11, 0x0a, 0x3e,
  0x46, 0xbe, 0x3e, 0xbe, 0xc8, 0x19, 0x9c, 0x3e, 0xfc, 0xec, 0x0b, 0x3e,
  0x17, 0xb8, 0xfe, 0x3d, 0xf8, 0xa2, 0xe6, 0xbd, 0xd9, 0x9d, 0x5f, 0x3e,
  0xc7, 0xbf, 0x22, 0xbe, 0x1d, 0x1e, 0x71, 0xbc, 0xbb, 0x63, 0x10, 0x3d,
  0x55, 0x0f, 0x3b, 0x3e, 0xd1, 0x17, 0xe7, 0xbd, 0x0e, 0xda, 0x02, 0xbe,
  0x06, 0xb8, 0xcb, 0x3d, 0x3e, 0x6b, 0x6d, 0xbe, 0xe6, 0xcd, 0x40, 0x3e,
  0x61, 0x75, 0x8e, 0x3e, 0x0c, 0xfc, 0x04, 0x3e, 0xa0, 0xb5, 0x5f, 0xbd,
  0x04, 0x4f, 0xfa, 0x3e, 0x18, 0x38, 0xbc, 0xbd, 0x87, 0x5f, 0xb3, 0xbd,
  0x97, 0x0c, 0xc2, 0x3d, 0xa5, 0xd1, 0xf7, 0xbc, 0x0d, 0xae, 0x39, 0x3c,
  0x34, 0x81, 0x00, 0x3d, 0x32, 0xc1, 0x80, 0x3d, 0xb1, 0xa7, 0x2b, 0x3d,
  0xff, 0x2f, 0xa1, 0x3d, 0x30, 0xf6, 0x3d, 0x3e, 0x4b, 0x3b, 0x23, 0x3e,
  0x46, 0x23, 0xd1, 0x3e, 0x40, 0x84, 0xec, 0xbc, 0x3d, 0x47, 0xdd, 0xbd,
  0x31, 0xee, 0xd0, 0x3e, 0xfb, 0xba, 0xa5, 0xbd, 0x46, 0x42, 0x2a, 0xbe,
  0x72, 0xb2, 0x93, 0xbd, 0x18, 0x0f, 0x02, 0x3d, 0x14, 0xfa, 0xf8, 0xbd,
  0xa7, 0x37, 0x49, 0xbe, 0x31, 0x52, 0x2c, 0x3e, 0xce, 0xae, 0x3c, 0x3d,
  0x26, 0xe5, 0x36, 0x3e, 0x9d, 0x72, 0x59, 0xbe, 0xc8, 0x0d, 0xf4, 0xbd,
  0xfd, 0x93, 0x3a, 0x3e, 0x3f, 0x58, 0xf3, 0x3d, 0x93, 0x8d, 0x0f, 0xbe,
  0x28, 0x8b, 0xd4, 0x3d, 0xcf, 0x61, 0x07, 0x3e, 0xe3, 0x12, 0x45, 0xbe,
  0xdd, 0x91, 0xc8, 0x3d, 0xcb, 0xa9, 0x5a, 0x3e, 0xaa, 0x2a, 0x6c, 0xbd,
  0x06, 0x38, 0xe7, 0xbd, 0x8b, 0xef, 0x90, 0xbd, 0xce, 0xf5, 0x40, 0x3d,
  0x54, 0xd2, 0x58, 0xbe, 0x07, 0x2c, 0x03, 0xbe, 0x7f, 0x93, 0x9e, 0x3d,
  0x2a, 0xc0, 0x9d, 0x3d, 0x5e, 0x7e, 0x63, 0x3e, 0xd6, 0xbc, 0xd9, 0x3c,
  0x59, 0x8f, 0x2c, 0x3d, 0x7a, 0x19, 0x20, 0xbd, 0xc9, 0xce, 0x2e, 0x3e,
  0x28, 0x8d, 0x5a, 0xbd, 0x16, 0x0d, 0x2b, 0xbe, 0x10, 0xa2, 0x64, 0x3e,
  0xac, 0x2b, 0x05, 0x3e, 0xc0, 0xa7, 0xf5, 0x3d, 0x0d, 0x15, 0x83, 0x3c,
  0xf7, 0x70, 0xa3, 0x3d, 0xd2, 0x48, 0x0d, 0xbe, 0x5f, 0xb9, 0xa7, 0x3e,
  0x2f, 0xc8, 0x18, 0x3e, 0xb0, 0x75, 0x25, 0x3e, 0x23, 0x77, 0x08, 0x3e,
  0x86, 0xe7, 0x5e, 0x3e, 0x58, 0x4e, 0x55, 0x3e, 0xdb, 0xaa, 0x4a, 0x3e,
  0x11, 0xd2, 0x36, 0x3e, 0xf5, 0x0c, 0xba, 0x3d, 0xc7, 0xd5, 0xb4, 0x3e,
  0xad, 0xfe, 0xe4, 0x3d, 0x59, 0x8e, 0x3a, 0xbe, 0xa3, 0x97, 0x90, 0x3c,
  0x24, 0x19, 0x8a, 0x3e, 0x69, 0x6c, 0xfa, 0xbd, 0xcb, 0x6d, 0xc5, 0xbd,
  0xf6, 0x36, 0x89, 0x3e, 0xef, 0x4a, 0x84, 0xbd, 0xd2, 0x92, 0x9c, 0x3e,
  0xa5, 0x04, 0xf7, 0x3d, 0x2e, 0xfa, 0xc2, 0x3c, 0x4e, 0x75, 0xb5, 0x3e,
  0x0d, 0xe1, 0xc3, 0x3d, 0x4b, 0x5b, 0x03, 0xbe, 0x45, 0x2d, 0x1f, 0x3e,
  0x12, 0x74, 0xaf, 0xbd, 0x59, 0x0e, 0x16, 0xbe, 0xd6, 0x29, 0x28, 0x3e,
  0x3e, 0x36, 0x64, 0xbe, 0xd9, 0x26, 0x02, 0x3b, 0x03, 0xcf, 0x44, 0x3e,
  0x12, 0xaa, 0xae, 0x3c, 0xe8, 0x64, 0xc2, 0xbd, 0x4e, 0x5a, 0x26, 0xbe,
  0x70, 0xc7, 0x37, 0xbc, 0x40, 0xec, 0x09, 0x3e, 0x95, 0xd3, 0xac, 0xbd,
  0x56, 0x72, 0xb9, 0xbd, 0x02, 0x61, 0x2b, 0xbd, 0x60, 0xcc, 0x22, 0x3e,
  0x53, 0xca, 0x29, 0xbd, 0x5d, 0x08, 0xc2, 0xbd, 0x74, 0x45, 0x9f, 0x3c,
  0x1f, 0x7a, 0x71, 0xbe, 0xf5, 0x05, 0x0e, 0xbe, 0x83, 0xb1, 0x48, 0x3d,
  0x14, 0x9d, 0x1b, 0xbe, 0xf1, 0x24, 0xa6, 0xbd, 0x13, 0x8a, 0xba, 0xbd,
  0x0b, 0xd2, 0xf2, 0x3d, 0x90, 0x52, 0x24, 0xbe, 0x8a, 0x12, 0xbd, 0x3c,
  0x91, 0xa7, 0xf5, 0xbd, 0x15, 0x47, 0x0a, 0xbe, 0x5a, 0xb0, 0x2d, 0xbc,
  0xc0, 0xb2, 0x93, 0x3d, 0xc6, 0xd8, 0xe6, 0x3d, 0x64, 0xca, 0xc4, 0x3d,
  0x8d, 0x1e, 0x16, 0x3c, 0xa7, 0x8c, 0x8c, 0xbd, 0x3b, 0x0b, 0x62, 0x3e,
  0x7d, 0x8d, 0xea, 0xbd, 0x45, 0xe4, 0xb7, 0xbc, 0xe3, 0x8f, 0x2d, 0xbe,
  0x9a, 0xd7, 0x17, 0xbe, 0x10, 0x4b, 0x29, 0x3e, 0x5f, 0xd1, 0x41, 0xbe,
  0xa0, 0x66, 0x87, 0xbd, 0x1e, 0xea, 0x91, 0xbd, 0x8f, 0x54, 0x0f, 0xbe,
  0xca, 0xda, 0x39, 0xbe, 0xee, 0x9a, 0x1b, 0xbe, 0x61, 0xd7, 0x81, 0xbc,
  0x4a, 0x6d, 0x23, 0xbe, 0x0f, 0x74, 0x2e, 0x3e, 0x5a, 0x77, 0x7a, 0x3d,
  0x60, 0x8d, 0x37, 0x3e, 0x7a, 0x1d, 0x48, 0xbe, 0xdc, 0x17, 0x22, 0xbe,
  0xa5, 0xf0, 0x3a, 0x3e, 0xed, 0x36, 0x9b, 0xbd, 0x80, 0x43, 0x93, 0x3d,
  0xef, 0xd7, 0xfa, 0x3d, 0x80, 0x68, 0x58, 0x3e, 0x66, 0x2f, 0xea, 0xbd,
  0x76, 0x90, 0x6f, 0xbe, 0x40, 0xca, 0x26, 0xbd, 0x0b, 0x2a, 0x3c, 0xbe,
  0xe4, 0xb6, 0x37, 0xbe, 0x74, 0x9e, 0x5a, 0x3e, 0x81, 0xef, 0x72, 0xbd,
  0xc5, 0x22, 0xc4, 0x3d, 0xfc, 0x6d, 0xf3, 0x3d, 0xb6, 0xf0, 0x00, 0x3e,
  0x50, 0x1a, 0xc4, 0xbd, 0x3b, 0xd6, 0xcd, 0x3d, 0x57, 0xbb, 0x52, 0xbe,
  0x3b, 0x5d, 0xb0, 0x3c, 0xb6, 0x8d, 0x5a, 0x3e, 0x8f, 0x12, 0xf6, 0x3d,
  0x4e, 0x01, 0xdb, 0x3d, 0x2c, 0x4f, 0x52, 0x3e, 0xc5, 0xe6, 0xc8, 0xbd,
  0xef, 0x0c, 0x21, 0xbe, 0x01, 0xf7, 0x7d, 0xbb, 0x48, 0x1e, 0x3a, 0xbd,
  0x23, 0x5b, 0x3b, 0x3e, 0x1e, 0x59, 0xb0, 0xbd, 0x38, 0xf2, 0x2b, 0x3e,
  0x77, 0x09, 0xaf, 0xbd, 0x78, 0x37, 0x75, 0xbe, 0x35, 0x08, 0xd4, 0x3c,
  0xbd, 0x12, 0x1c, 0xbe, 0xcb, 0xdb, 0x35, 0xbd, 0x18, 0x01, 0x4e, 0xbe,
  0xcc, 0x79, 0x1a, 0x3e, 0x66, 0x0d, 0xfe, 0xbd, 0xa4, 0xe0, 0x7a, 0xbd,
  0x84, 0x83, 0x97, 0x3d, 0x50, 0x2d, 0x41, 0x3e, 0x42, 0x9a, 0x4c, 0x3e,
  0x66, 0x01, 0xaf, 0xbd, 0x2a, 0x5a, 0x52, 0xbe, 0xfe, 0x4f, 0x4b, 0xbe,
  0xf8, 0xff, 0x9c, 0x3d, 0x00, 0x8f, 0xd5, 0xbd, 0x58, 0x8a, 0x49, 0xbd,
  0xa8, 0xb8, 0x0d, 0x3d, 0x90, 0x18, 0x34, 0xbe, 0x45, 0xac, 0xfc, 0xbd,
  0x3c, 0xd3, 0x50, 0x3e, 0xe6, 0x86, 0x33, 0x3e, 0x80, 0x24, 0xad, 0xbb,
  0x2d, 0x8e, 0xf1, 0xbd, 0x30, 0x96, 0x64, 0x3c, 0xf5, 0x51, 0x60, 0xbe,
  0x60, 0x79, 0x00, 0xbc, 0x0e, 0x95, 0x16, 0xbe, 0x58, 0x17, 0x23, 0x3e,
  0x16, 0xb3, 0x2e, 0xbe, 0x5c, 0x85, 0x90, 0x3d, 0x20, 0x13, 0xaa, 0x3d,
  0x12, 0xa5, 0x59, 0x3e, 0x2a, 0x12, 0xe9, 0xbd, 0xba, 0x7f, 0x25, 0x3e,
  0x12, 0x84, 0x4b, 0x3e, 0x80, 0x77, 0xcc, 0x3c, 0xda, 0xe4, 0xa5, 0xbd,
  0x0c, 0x7f, 0xbe, 0x3d, 0xe2, 0xee, 0xcb, 0xbd, 0xaa, 0x27, 0x46, 0xbe,
  0xf5, 0x9f, 0x6a, 0xbe, 0xb8, 0xb7, 0x21, 0xbd, 0x7a, 0x17, 0x92, 0xbd,
  0x18, 0x25, 0xfe, 0xbc, 0xe0, 0xb9, 0xf8, 0x3d, 0xec, 0x3b, 0x83, 0x3d,
  0x48, 0x96, 0x28, 0xbd, 0xc8, 0xba, 0x4d, 0xbe, 0x0b, 0x15, 0x5b, 0xbe,
  0x3e, 0x79, 0x20, 0x3e, 0xe0, 0x1c, 0x68, 0xbc, 0x74, 0x41, 0x29, 0x3e,
  0x94, 0x80, 0xdd, 0x3d, 0x36, 0x1d, 0xc3, 0xbd, 0x80, 0x05, 0x45, 0xbd,
  0xc2, 0x6e, 0x5b, 0xbe, 0xb4, 0x18, 0xed, 0x3d, 0x50, 0x2e, 0x5c, 0xbe,
  0x2a, 0x8b, 0x27, 0xbe, 0x9e, 0x92, 0x64, 0x3e, 0x70, 0x89, 0xb7, 0xbd,
  0x68, 0xf6, 0x8c, 0xbd, 0xc0, 0x64, 0xa4, 0x3d, 0x12, 0x19, 0x0d, 0xbe,
  0xbf, 0x91, 0xf7, 0x3e, 0xdb, 0x5c, 0x69, 0xbd, 0xa5, 0x6a, 0xb6, 0xbd,
  0x83, 0x29, 0xdc, 0x3e, 0xd8, 0x63, 0xa4, 0x3d, 0xef, 0x65, 0x45, 0x3e,
  0x98, 0x09, 0xc8, 0x3e, 0xfa, 0x9f, 0x30, 0xbe, 0x4a, 0x21, 0x20, 0xbd,
  0x88, 0xc1, 0x1c, 0x3e, 0x59, 0x2f, 0x34, 0x3e, 0x6f, 0xa3, 0x72, 0x3e,
  0x22, 0x04, 0x5a, 0x3e, 0x82, 0x39, 0x1a, 0xbd, 0xa9, 0x69, 0x67, 0x3e,
  0xb3, 0x97, 0xa7, 0x3e, 0x87, 0xb5, 0x75, 0xbe, 0x95, 0xfa, 0xe9, 0x3d,
  0xbe, 0x46, 0xcd, 0x3e, 0x6d, 0x7c, 0xe4, 0x3d, 0x79, 0x64, 0x8b, 0x3e,
  0x5d, 0x7f, 0xd2, 0x3e, 0x18, 0x57, 0x68, 0xbe, 0x51, 0xff, 0xc7, 0x3d,
  0x03, 0xbe, 0x24, 0x3e, 0xe5, 0x22, 0x2c, 0x3e, 0x72, 0x54, 0xba, 0x3d,
  0xb5, 0x88, 0xec, 0xbb, 0xb7, 0xbc, 0x1c, 0xbe, 0x4b, 0x30, 0x6e, 0xbd,
  0x3f, 0x65, 0x1d, 0x3d, 0x80, 0x25, 0xad, 0x3d, 0x29, 0xa8, 0x45, 0xbb,
  0x99, 0x00, 0xf9, 0x3d, 0x3e, 0xfb, 0xcb, 0xbd, 0x3c, 0x58, 0x04, 0xbe,
  0xb5, 0x71, 0x1a, 0x3e, 0x40, 0xcf, 0x21, 0x3e, 0x2d, 0x6e, 0xf8, 0xbd,
  0x2d, 0x5b, 0x29, 0x3e, 0x82, 0x56, 0x22, 0xbe, 0x93, 0x63, 0x26, 0xbd,
  0x1d, 0x4c, 0x55, 0xbd, 0xad, 0x7b, 0x0c, 0xbe, 0x7b, 0xca, 0x48, 0xbe,
  0xd0, 0x96, 0xe4, 0xbb, 0x5b, 0x86, 0x34, 0x3d, 0xdc, 0x94, 0x6a, 0xbd,
  0x8f, 0x14, 0x9d, 0xbd, 0xb9, 0x25, 0xff, 0x3d, 0x66, 0x40, 0x63, 0xbe,
  0x93, 0x2b, 0xce, 0x3d, 0x0b, 0x00, 0x7b, 0x3d, 0x9f, 0x8f, 0x22, 0xbe,
  0x91, 0x13, 0x4b, 0x3e, 0x5e, 0x93, 0x33, 0xbe, 0x03, 0x12, 0xc1, 0xbd,
  0x81, 0x57, 0x37, 0x3b, 0x13, 0xef, 0xde, 0xbd, 0x76, 0xd2, 0xbe, 0x3d,
  0xb4, 0x57, 0x12, 0xbf, 0x5a, 0x61, 0xce, 0xbd, 0xbd, 0xd5, 0xaf, 0x3e,
  0xd2, 0x87, 0x13, 0xbf, 0x2d, 0xc7, 0x1a, 0xbe, 0x1c, 0x34, 0x06, 0x3e,
  0x21, 0xfa, 0xf8, 0xbe, 0x56, 0x2c, 0xe4, 0x3d, 0xd9, 0x65, 0x93, 0x3e,
  0xc5, 0xc3, 0x8b, 0xbe, 0x84, 0xd8, 0xab, 0xbc, 0x46, 0xba, 0x24, 0x3e,
  0x7b, 0xad, 0xc5, 0xbe, 0x54, 0x08, 0x6b, 0xbc, 0xe1, 0x51, 0x1d, 0xbd,
  0x46, 0x21, 0xcf, 0xbe, 0xe2, 0xa1, 0x0a, 0x3e, 0x7b, 0x06, 0xb2, 0x3e,
  0xdd, 0x98, 0x80, 0xbe, 0x35, 0xe8, 0xd7, 0x3c, 0x11, 0xc2, 0x39, 0xbd,
  0xd0, 0xdb, 0x04, 0xbe, 0x25, 0x08, 0xc1, 0x3b, 0x65, 0x9a, 0x24, 0x3e,
  0xad, 0x6c, 0xe0, 0xbd, 0x5e, 0x81, 0xc9, 0x3c, 0xcc, 0x4b, 0x3a, 0x3e,
  0xa8, 0xa6, 0x12, 0xbe, 0xb5, 0xfe, 0x57, 0x3e, 0x6c, 0x5f, 0x6d, 0x3e,
  0x50, 0xaf, 0x81, 0x3d, 0x80, 0x6d, 0x4d, 0xbd, 0x6b, 0x54, 0x9b, 0x3c,
  0xee, 0x1d, 0xa3, 0x3d, 0xcd, 0xce, 0x86, 0x3e, 0x35, 0x96, 0x71, 0x3e,
  0x10, 0x40, 0x0c, 0xbe, 0x50, 0x82, 0xa7, 0xbd, 0xbd, 0x06, 0xb6, 0x3d,
  0xf4, 0x71, 0x8f, 0x3d, 0x8b, 0x6c, 0x72, 0x3e, 0x6c, 0x0f, 0x92, 0xbd,
  0x5b, 0x49, 0x17, 0xbe, 0x53, 0x63, 0x82, 0x3e, 0xea, 0xd1, 0x22, 0x3e,
  0x16, 0x96, 0xe4, 0x3d, 0x0c, 0x89, 0x16, 0x3c, 0x81, 0x53, 0x03, 0xbe,
  0x33, 0x48, 0x1b, 0xbe, 0x38, 0xca, 0x9b, 0x3c, 0xce, 0x44, 0x2b, 0xbe,
  0x4b, 0x93, 0xe1, 0xbd, 0x5d, 0x79, 0x0c, 0x3e, 0xbe, 0xf1, 0x53, 0xbd,
  0x7f, 0xa2, 0x2a, 0xbe, 0xe6, 0x28, 0x1c, 0x3e, 0xd9, 0x5c, 0x48, 0x3e,
  0x44, 0xda, 0xb8, 0xbc, 0xf8, 0xb0, 0x18, 0xbd, 0x77, 0x46, 0xaf, 0xbd,
  0xed, 0xa5, 0x00, 0xbd, 0x3f, 0x9f, 0xb2, 0xbd, 0x1c, 0x7c, 0x58, 0xbe,
  0x56, 0xbb, 0x12, 0xbe, 0xe2, 0x46, 0x8c, 0x3e, 0xb8, 0x13, 0xfa, 0xbe,
  0x82, 0x55, 0x21, 0x3e, 0x5a, 0x45, 0x0f, 0xbe, 0xca, 0xa6, 0xfd, 0xbe,
  0x34, 0xe5, 0x5e, 0x3d, 0xa4, 0x56, 0xe8, 0xbc, 0xea, 0x87, 0x8b, 0xbe,
  0xf3, 0x14, 0x47, 0x3d, 0xc2, 0xaa, 0xf3, 0x3d, 0xb4, 0x39, 0xa7, 0xbe,
  0x55, 0x1a, 0x86, 0xbc, 0x71, 0x0a, 0x62, 0x3d, 0xc0, 0x87, 0xbc, 0xbe,
  0x2a, 0xf0, 0x60, 0x3e, 0x61, 0x94, 0x5f, 0x3d, 0xd3, 0xe3, 0xd0, 0xbe,
  0x5a, 0x41, 0xcd, 0x3d, 0xbd, 0x26, 0x47, 0x3e, 0xb1, 0x87, 0xa2, 0xbe,
  0x39, 0xb7, 0x53, 0x3e, 0x12, 0x5a, 0x81, 0x3e, 0xe4, 0xac, 0x0f, 0xbe,
  0xb5, 0x05, 0x93, 0x3d, 0x69, 0x2b, 0xa6, 0x3d, 0x07, 0x81, 0xa2, 0xbe,
  0xd5, 0x79, 0x17, 0x3e, 0x06, 0x63, 0x80, 0x3b, 0x92, 0xa0, 0x49, 0xbe,
  0x3b, 0xd7, 0x8b, 0xbd, 0x44, 0x77, 0xb8, 0x3d, 0x8d, 0x0c, 0xe4, 0xbc,
  0x20, 0x3d, 0x51, 0xbe, 0x1f, 0xa8, 0xae, 0x3d, 0x9a, 0xc2, 0x7b, 0xbe,
  0xc3, 0x8a, 0x69, 0x3e, 0xa9, 0x01, 0x38, 0xbd, 0x45, 0x4c, 0x42, 0xbd,
  0x57, 0x90, 0x4a, 0xbc, 0xa7, 0x02, 0x49, 0x3d, 0x7f, 0x9c, 0xe8, 0xbd,
  0xef, 0x44, 0x21, 0xbe, 0x24, 0x1d, 0x8b, 0x3e, 0x98, 0x3f, 0xd0, 0xbd,
  0xbc, 0x75, 0xdc, 0x3c, 0x45, 0xaa, 0x5f, 0x3e, 0xf4, 0xcf, 0xaf, 0xbe,
  0x08, 0x55, 0x57, 0xbe, 0xef, 0xc4, 0x82, 0x3e, 0x39, 0xbe, 0xc5, 0xbe,
  0x67, 0xae, 0xb3, 0xbc, 0xa2, 0xf6, 0x8f, 0x3e, 0x19, 0xae, 0xec, 0xbe,
  0x2d, 0x83, 0x1f, 0x3c, 0x74, 0x48, 0x75, 0x3e, 0x08, 0xf3, 0xd2, 0xbc,
  0x5b, 0x71, 0x39, 0x3e, 0x81, 0xd7, 0xf5, 0x3d, 0xc1, 0x5b, 0x92, 0x3d,
  0x58, 0xf0, 0x74, 0x3e, 0xba, 0x9c, 0x43, 0x3c, 0x34, 0xca, 0xd9, 0x3d,
  0xdb, 0xd4, 0x04, 0x3e, 0x41, 0x29, 0x4c, 0xbe, 0xc8, 0xf1, 0xce, 0x3d,
  0x34, 0x9f, 0xd9, 0x3d, 0xe2, 0x86, 0xfd, 0xbc, 0xc6, 0x07, 0x66, 0xbe,
  0x15, 0x54, 0x9a, 0x3e, 0xf0, 0x07, 0x02, 0x3e, 0xe1, 0x45, 0x18, 0x3e,
  0xe1, 0x62, 0x56, 0x3e, 0x2a, 0x25, 0x09, 0xbe, 0x6a, 0xd4, 0x05, 0xbc,
  0x15, 0x3b, 0xb3, 0x3e, 0xb3, 0x15, 0x02, 0x3e, 0x71, 0x41, 0x01, 0x3e,
  0xed, 0x97, 0x45, 0x3e, 0xaf, 0x15, 0x57, 0x3e, 0x52, 0xcf, 0x47, 0xbe,
  0x00, 0x04, 0x1f, 0x3e, 0x18, 0x73, 0xad, 0xbd, 0xd3, 0x99, 0x81, 0xbc,
  0xbf, 0x1d, 0xbe, 0x3d, 0x11, 0xcd, 0x15, 0x3e, 0x31, 0xbd, 0xa8, 0x3d,
  0xb6, 0xbf, 0xff, 0x3d, 0x00, 0x94, 0x4f, 0xbe, 0xf8, 0x52, 0x36, 0x3d,
  0x8c, 0x85, 0x27, 0x3e, 0x4a, 0xa3, 0x0b, 0xbe, 0x4d, 0x08, 0x4d, 0xbe,
  0x8b, 0x05, 0x05, 0x3e, 0x2c, 0xdc, 0x53, 0xbe, 0x8d, 0x65, 0x3b, 0xbc,
  0x74, 0x26, 0x4b, 0xbd, 0x4c, 0xe4, 0xa8, 0xbd, 0x64, 0xf7, 0x49, 0xbe,
  0xc0, 0x6a, 0x4b, 0x3c, 0x2a, 0x80, 0x85, 0x3d, 0x95, 0x20, 0x99, 0xbe,
  0x75, 0xc0, 0x2f, 0x3d, 0xc3, 0xd9, 0x4a, 0x3b, 0xfd, 0xfd, 0xea, 0x3d,
  0x8c, 0x47, 0x76, 0xbd, 0x31, 0x90, 0xcc, 0xbc, 0x8b, 0xc5, 0x79, 0x3d,
  0x44, 0xa5, 0xae, 0x3c, 0xc8, 0x75, 0x66, 0x3e, 0x8d, 0x67, 0xe9, 0xbd,
  0x71, 0x90, 0x06, 0xbe, 0xcf, 0xee, 0x74, 0x3e, 0xbc, 0x17, 0x90, 0xbd,
  0x5b, 0x7d, 0x4e, 0x3e, 0x0a, 0x9d, 0x4c, 0x3e, 0x5c, 0x19, 0x4d, 0x3c,
  0x8a, 0x68, 0x25, 0x3e, 0x46, 0xdd, 0x64, 0x3d, 0xaf, 0x5c, 0xff, 0xbd,
  0x76, 0x37, 0x06, 0xbd, 0x73, 0xe3, 0x73, 0x3e, 0xe7, 0xaa, 0x5d, 0x3d,
  0xf5, 0xb2, 0x97, 0xbb, 0x38, 0xf4, 0x46, 0xbe, 0x5b, 0xe3, 0x9b, 0xbd,
  0x2b, 0x91, 0x6f, 0x3e, 0x66, 0xa1, 0xb6, 0x3c, 0xea, 0x8c, 0xc2, 0xbe,
  0xf9, 0x36, 0x22, 0x3d, 0x9c, 0xe5, 0x7b, 0x3e, 0xe1, 0x21, 0x1d, 0xbe,
  0x5a, 0x09, 0xd0, 0x3d, 0x71, 0x58, 0x4f, 0xbd, 0x7a, 0xbc, 0x7e, 0xbe,
  0x7b, 0xb0, 0x98, 0x3d, 0x3c, 0xd4, 0x04, 0xbe, 0x5f, 0x02, 0x94, 0xbe,
  0xe4, 0x99, 0x97, 0xbd, 0x75, 0x0c, 0x82, 0x3e, 0xdb, 0xa9, 0x5d, 0xbd,
  0xbc, 0x3a, 0x8b, 0xbd, 0x0f, 0x7b, 0x3d, 0xbe, 0xa5, 0xb0, 0x93, 0xbe,
  0x05, 0xde, 0x0f, 0x3e, 0xa0, 0xfa, 0x06, 0x3e, 0x93, 0x64, 0x4e, 0xbe,
  0x49, 0x8e, 0xb8, 0x3e, 0xd2, 0x0c, 0x8f, 0x3d, 0xf7, 0x95, 0x0a, 0x3e,
  0xf3, 0x62, 0x25, 0x3d, 0x2f, 0x21, 0x60, 0xbd, 0x80, 0x7c, 0x63, 0x3e,
  0x29, 0x78, 0x42, 0xbd, 0x77, 0xc4, 0x43, 0xbe, 0x6b, 0x2d, 0xe8, 0x3d,
  0xf4, 0x73, 0xb5, 0x3e, 0xd7, 0xeb, 0x69, 0x3e, 0x9c, 0x86, 0x0d, 0xbc,
  0xfc, 0xfd, 0x5f, 0x3e, 0x5f, 0x18, 0x94, 0x3d, 0x93, 0xce, 0xa2, 0xbd,
  0x2b, 0x89, 0x92, 0x3e, 0xb2, 0x7b, 0x3a, 0xbe, 0xb9, 0xfd, 0x41, 0xbd,
  0xa2, 0x1d, 0x87, 0x3d, 0x9f, 0xdd, 0x1d, 0x3e, 0x88, 0x86, 0x21, 0xbe,
  0x39, 0x06, 0xad, 0x3e, 0x71, 0xc9, 0xa5, 0xbd, 0x10, 0xad, 0x20, 0xbc,
  0x68, 0xf5, 0xb0, 0x3d, 0x27, 0xda, 0x95, 0xbd, 0x56, 0xff, 0xf0, 0xbd,
  0x20, 0xe7, 0x63, 0xbc, 0xfa, 0x19, 0x33, 0x3d, 0xae, 0xb5, 0x0d, 0x3e,
  0x74, 0x37, 0x08, 0x3e, 0x52, 0xee, 0x39, 0x3e, 0x69, 0x45, 0x26, 0xbe,
  0xe0, 0xf1, 0x88, 0x3e, 0x62, 0x9e, 0xdf, 0x3d, 0xcc, 0x63, 0x37, 0x3e,
  0x5a, 0xa8, 0x01, 0x3f, 0x7c, 0xda, 0x90, 0xbe, 0xba, 0x46, 0x67, 0x3e,
  0x1b, 0xb5, 0xc0, 0x3e, 0x57, 0x96, 0xe5, 0xbd, 0x95, 0x5b, 0x80, 0x3e,
  0xb8, 0xfa, 0xf6, 0x3d, 0x54, 0xa8, 0xeb, 0xbd, 0x3d, 0xd2, 0x11, 0x3e,
  0x33, 0x00, 0x9d, 0x3e, 0xaf, 0xb5, 0xbd, 0x3d, 0x35, 0x35, 0x1b, 0x3e,
  0xca, 0x46, 0xce, 0x3e, 0x5b, 0x39, 0x58, 0xbe, 0x05, 0x6e, 0xaf, 0x3c,
  0x73, 0x1c, 0xd1, 0x3e, 0x4f, 0xe4, 0xe1, 0x3c, 0xb2, 0xf3, 0xed, 0x3b,
  0x2d, 0x1d, 0xdc, 0x3e, 0xe5, 0x6f, 0xa5, 0x3d, 0x8c, 0xd1, 0xdf, 0xbc,
  0xe8, 0x3f, 0x3b, 0x3e, 0xdb, 0x9d, 0xc0, 0x3d, 0xa1, 0x7b, 0x58, 0xbe,
  0x88, 0xc0, 0x1a, 0x3e, 0xf6, 0x35, 0x27, 0xbe, 0x60, 0xd4, 0x4e, 0x3d,
  0x20, 0x7b, 0x85, 0x3e, 0x2d, 0x49, 0x36, 0x3e, 0x1d, 0x86, 0x08, 0x3e,
  0xad, 0x8b, 0x28, 0x3d, 0x1d, 0xbb, 0x06, 0xbd, 0x4f, 0x73, 0xd6, 0xbd,
  0x3a, 0x4e, 0x9a, 0xbd, 0x64, 0xcb, 0x8a, 0x3b, 0xbb, 0xda, 0xc3, 0x3d,
  0x74, 0x57, 0x84, 0xbd, 0x9c, 0x3c, 0xeb, 0xbd, 0x9e, 0x22, 0x37, 0xbe,
  0x26, 0xda, 0x1e, 0xbd, 0x63, 0xa6, 0x1a, 0xbd, 0xb7, 0xf8, 0x77, 0xbd,
  0x7a, 0x73, 0x2e, 0xbd, 0xdf, 0x17, 0x16, 0x3e, 0x5b, 0xed, 0xb2, 0xbb,
  0xbd, 0xb5, 0x23, 0x3d, 0x5c, 0xac, 0x35, 0x3d, 0x6c, 0x6e, 0x68, 0xbe,
  0xbe, 0xc3, 0x03, 0x3e, 0xcc, 0x99, 0xbb, 0x3d, 0x6a, 0x3c, 0x4d, 0xbe,
  0x0b, 0xa4, 0x90, 0xbd, 0x65, 0x3c, 0x6d, 0xbe, 0x30, 0xfc, 0xed, 0xbd,
  0x74, 0x5a, 0x15, 0xbe, 0x31, 0xc2, 0x27, 0x3e, 0x2f, 0xd7, 0xb2, 0xbe,
  0x71, 0x35, 0xfd, 0xbd, 0x4c, 0x86, 0x5e, 0x3b, 0x1e, 0x2e, 0xcf, 0xbe,
  0x24, 0xc2, 0xe8, 0xbd, 0x37, 0xfa, 0x96, 0x3e, 0xf6, 0x5a, 0x87, 0xbe,
  0x18, 0xba, 0x5d, 0x3d, 0x71, 0xef, 0x33, 0x3e, 0x29, 0x74, 0xb6, 0xbe,
  0x84, 0x0b, 0x1b, 0xbd, 0x4e, 0xf6, 0xea, 0xbc, 0xf1, 0xb4, 0x88, 0xbe,
  0x7a, 0x69, 0x22, 0x3e, 0xf2, 0x90, 0xab, 0x3e, 0x72, 0xef, 0x24, 0xbe,
  0xf9, 0x53, 0x59, 0xbe, 0x49, 0x3a, 0x74, 0x3e, 0x7c, 0xdf, 0x35, 0xbe,
  0x99, 0x49, 0x1b, 0x3d, 0xab, 0xe4, 0x83, 0x3e, 0x4d, 0x82, 0xc5, 0xbe,
  0xd6, 0xd2, 0x13, 0xbe, 0xac, 0x3f, 0x3a, 0xbd, 0x7f, 0x65, 0xb6, 0xbe,
  0xff, 0xc3, 0x25, 0x3e, 0x57, 0x2f, 0x4f, 0x3e, 0x06, 0x7d, 0xc1, 0xbd,
  0xb9, 0x6f, 0x29, 0x3d, 0x96, 0xc3, 0x4b, 0x3e, 0x20, 0x40, 0x10, 0xbe,
  0xe2, 0x0d, 0xdf, 0xbd, 0xb1, 0x68, 0xc2, 0x3d, 0x00, 0x3e, 0x1e, 0xbe,
  0xd7, 0x36, 0xd1, 0x3c, 0xd9, 0x8c, 0x3c, 0x3e, 0xf7, 0xdb, 0xdb, 0x3d,
  0x7b, 0xe7, 0x86, 0xbe, 0xd9, 0xaa, 0x9f, 0x3e, 0x08, 0xac, 0x7b, 0xbe,
  0x42, 0xda, 0xd3, 0x3c, 0x31, 0xd0, 0x67, 0x3d, 0xb3, 0xae, 0x71, 0xbe,
  0xc1, 0x31, 0x34, 0x3e, 0xb0, 0x8d, 0x94, 0x3e, 0xa7, 0xe5, 0xc9, 0x3d,
  0x86, 0x4d, 0xc7, 0x3d, 0x01, 0x41, 0xc6, 0xbd, 0x39, 0x57, 0x08, 0x3d,
  0xe2, 0x87, 0xf0, 0xbd, 0x18, 0x58, 0x5a, 0x3e, 0x64, 0xc4, 0xf0, 0xbd,
  0xd8, 0x85, 0x1d, 0xbe, 0x2d, 0xd1, 0x9a, 0xbb, 0x9f, 0x16, 0x14, 0xbe,
  0x44, 0x7c, 0x35, 0x3d, 0x62, 0xc3, 0xe8, 0x3c, 0xed, 0x4c, 0x73, 0xbe,
  0x8e, 0xbf, 0x90, 0x3e, 0xdc, 0x9c, 0x9a, 0x3c, 0x93, 0xdb, 0x66, 0xbd,
  0xa5, 0x9b, 0x25, 0x3e, 0xd0, 0xa2, 0x5f, 0xbd, 0x60, 0xc9, 0x80, 0xbe,
  0x73, 0x78, 0x03, 0x3d, 0xe7, 0xbe, 0x4e, 0x3e, 0xe9, 0xd8, 0x5c, 0xbe,
  0x9f, 0x6c, 0x92, 0x3e, 0xf7, 0x36, 0x23, 0x3e, 0x4c, 0x61, 0xa1, 0xbe,
  0x9e, 0xa5, 0xb2, 0x3e, 0x2d, 0xdf, 0xd4, 0x3d, 0x6d, 0xec, 0xd6, 0x3d,
  0x73, 0xed, 0x9d, 0x3e, 0x95, 0x7b, 0x75, 0x3e, 0xee, 0x8e, 0x87, 0xbd,
  0xde, 0xd7, 0x81, 0x3e, 0x56, 0xec, 0x7d, 0xbc, 0xa3, 0x89, 0xe1, 0x3c,
  0xc2, 0x88, 0xfd, 0x3c, 0x72, 0x60, 0x3e, 0x3e, 0x75, 0x08, 0x09, 0xbe,
  0xb5, 0x8a, 0xc7, 0x3e, 0x3e, 0xd0, 0x62, 0x3e, 0x2b, 0xd3, 0x98, 0xbe,
  0x04, 0x99, 0x70, 0x3e, 0xaf, 0x9a, 0xa6, 0x3d, 0x51, 0xc9, 0xf6, 0xbc,
  0x8e, 0xce, 0x72, 0x3e, 0x20, 0x23, 0x19, 0x3d, 0x56, 0x4d, 0x5b, 0xbe,
  0x10, 0xc0, 0x6c, 0x3c, 0x02, 0xc1, 0x50, 0x3e, 0xee, 0xed, 0x9f, 0xbe,
  0xeb, 0x65, 0xe6, 0x3d, 0xa8, 0xbf, 0xad, 0x3d, 0xe0, 0x62, 0x13, 0xbd,
  0xcb, 0xd2, 0x0e, 0xbd, 0x7c, 0x6f, 0x80, 0x3e, 0xeb, 0xf4, 0x55, 0xbd,
  0xd1, 0x21, 0xb0, 0x3d, 0xf3, 0xcc, 0x1c, 0x3e, 0x93, 0x88, 0x34, 0x3d,
  0x05, 0xab, 0x02, 0x3e, 0x04, 0x6d, 0x1f, 0x3e, 0x4e, 0xb8, 0x8b, 0xbe,
  0xa7, 0xf3, 0xa6, 0xbd, 0x3a, 0xe7, 0x97, 0x3d, 0xec, 0x77, 0x7d, 0xbe,
  0xef, 0x93, 0x02, 0x3e, 0x72, 0xdc, 0xe2, 0x3d, 0xc4, 0x55, 0x6e, 0xbe,
  0xf2, 0x07, 0xa4, 0x3d, 0x38, 0x91, 0x96, 0x3e, 0x10, 0xe6, 0x9a, 0xbd,
  0x91, 0x32, 0x4b, 0x3e, 0x12, 0x31, 0x59, 0x3e, 0x7a, 0x06, 0x94, 0xbe,
  0x4c, 0x71, 0xb9, 0x3b, 0x5c, 0x61, 0xa7, 0xbd, 0x45, 0x04, 0x55, 0x3e,
  0x98, 0xfd, 0x31, 0x3d, 0xd4, 0x32, 0x73, 0xbd, 0xa1, 0xa8, 0x90, 0xba,
  0x2d, 0x6d, 0x5b, 0x3e, 0xeb, 0x75, 0xc2, 0xbd, 0x98, 0x73, 0x12, 0x3e,
  0x52, 0x5c, 0xba, 0xbc, 0x87, 0x9f, 0xc3, 0x3d, 0x99, 0xea, 0xb9, 0x3d,
  0x1a, 0x14, 0x37, 0xbd, 0x1a, 0x46, 0x4b, 0xbe, 0x93, 0x33, 0x17, 0xbe,
  0x27, 0x59, 0x53, 0xbe, 0x71, 0xea, 0xd7, 0x3d, 0x25, 0x30, 0x80, 0x3d,
  0x0e, 0x8f, 0x41, 0x3e, 0xc6, 0x26, 0x6d, 0x3d, 0x95, 0x83, 0xf0, 0x3d,
  0x1c, 0x6c, 0xf7, 0xbd, 0xac, 0x67, 0x52, 0x3e, 0xaf, 0x8e, 0x77, 0xbd,
  0x70, 0xfa, 0x99, 0xbd, 0x1b, 0x53, 0x57, 0xbe, 0x57, 0x89, 0xbe, 0xbd,
  0x0b, 0x89, 0xee, 0xbc, 0x22, 0x09, 0x2e, 0xbe, 0xba, 0xc0, 0x16, 0x3d,
  0x2e, 0xb2, 0x82, 0x3c, 0x9a, 0x8c, 0x3b, 0x3e, 0x63, 0x89, 0x7a, 0xbd,
  0x72, 0xcd, 0xa7, 0xbc, 0x26, 0xaa, 0x1e, 0x3d, 0x30, 0x99, 0x2e, 0x3e,
  0x91, 0xaa, 0x28, 0xbd, 0x6e, 0x1b, 0x5c, 0xbd, 0x9e, 0xb5, 0x45, 0x3e,
  0x72, 0x01, 0x11, 0xbe, 0x7f, 0xc0, 0x4c, 0x3e, 0xc9, 0x82, 0xd2, 0xbd,
  0x18, 0x74, 0x07, 0x3e, 0x4c, 0x3c, 0x60, 0xbd, 0x01, 0x7b, 0x26, 0x3e,
  0xab, 0xa9, 0xea, 0x3d, 0x9c, 0xdb, 0x59, 0x3d, 0x3c, 0x79, 0x51, 0xbe,
  0x9b, 0x38, 0x76, 0xbe, 0x15, 0x70, 0x7e, 0xbd, 0x64, 0x36, 0x2c, 0xbe,
  0x8c, 0x49, 0x5f, 0xbd, 0xfe, 0xa7, 0x22, 0x3e, 0xd3, 0x23, 0x72, 0xbe,
  0xd9, 0xd8, 0xa3, 0xbd, 0x55, 0x5c, 0x09, 0xbe, 0xa3, 0xd0, 0x78, 0xbe,
  0x78, 0x02, 0x07, 0xbe, 0x5c, 0x00, 0xa1, 0xbd, 0x32, 0x94, 0x68, 0xbc,
  0x14, 0x19, 0x77, 0xbd, 0x38, 0x39, 0x4b, 0xbc, 0x64, 0xfa, 0x36, 0xbe,
  0x69, 0xf3, 0x74, 0x3e, 0x00, 0x91, 0x1c, 0x3d, 0x59, 0x09, 0x49, 0xbe,
  0x9a, 0x0f, 0x0f, 0xbe, 0xfd, 0x4e, 0x70, 0x3e, 0x20, 0x09, 0x16, 0xbe,
  0xd0, 0x69, 0x9d, 0xbd, 0x31, 0x3f, 0x86, 0x3e, 0x14, 0x7b, 0xfc, 0xbe,
  0x3c, 0x26, 0xb9, 0x3c, 0xdf, 0x37, 0x75, 0x3e, 0x27, 0x42, 0xa0, 0xbd,
  0x37, 0x0a, 0x66, 0x3e, 0xc4, 0x5b, 0x45, 0x3c, 0x6f, 0xbc, 0xb8, 0xbe,
  0x41, 0xc4, 0x26, 0x3e, 0x90, 0x5d, 0xbc, 0xbd, 0x62, 0x01, 0x76, 0xbe,
  0x58, 0x46, 0xdc, 0x3d, 0xf3, 0xc6, 0x0f, 0x3c, 0x18, 0xf5, 0xa0, 0xbe,
  0x99, 0x5f, 0x1e, 0x3e, 0x4b, 0x54, 0xef, 0x3d, 0x1b, 0x5c, 0xd9, 0xbe,
  0x25, 0xc4, 0xaa, 0xbd, 0x0b, 0xb0, 0x5c, 0x3e, 0xfb, 0x59, 0x51, 0xbe,
  0x15, 0x28, 0xa1, 0xbd, 0x71, 0x9d, 0x3c, 0x3d, 0x66, 0xc2, 0x3d, 0xbe,
  0x7a, 0xcc, 0xe5, 0x3c, 0x17, 0x6b, 0x4c, 0x3e, 0x20, 0xf9, 0xaa, 0xbe,
  0x73, 0x73, 0x5e, 0xbe, 0x25, 0x4f, 0x8d, 0x3e, 0x3e, 0xb1, 0x3e, 0xbe,
  0x19, 0xa8, 0x55, 0x3c, 0x8d, 0xfb, 0x05, 0xbc, 0x80, 0x91, 0x90, 0xbe,
  0x62, 0x5a, 0xa4, 0x3d, 0x3a, 0x83, 0x83, 0xbd, 0x3d, 0x8a, 0xf6, 0xbe,
  0x62, 0xc2, 0x3d, 0xbe, 0x41, 0x13, 0x04, 0xbd, 0x8b, 0x5d, 0x9c, 0xbe,
  0x8b, 0xbb, 0x3b, 0x3e, 0x3c, 0x27, 0x92, 0xbd, 0x59, 0xff, 0x25, 0xbe,
  0xa9, 0xda, 0xf3, 0x3d, 0x6c, 0x96, 0x61, 0x3e, 0xdf, 0x7d, 0xee, 0xbe,
  0xfd, 0xaa, 0x8a, 0x3d, 0x14, 0xca, 0x62, 0xbd, 0x32, 0x07, 0xf4, 0xbd,
  0x81, 0xb9, 0xe3, 0x3d, 0xea, 0x0d, 0x81, 0x3e, 0xeb, 0x24, 0xb8, 0xbd,
  0x6c, 0x6a, 0x80, 0xbe, 0x8a, 0xb6, 0xd1, 0x3d, 0x9a, 0x9f, 0xdd, 0x3e,
  0x79, 0x27, 0xca, 0xbe, 0x59, 0x0d, 0xb2, 0xbc, 0xc3, 0x0c, 0x7c, 0x3e,
  0x97, 0x8f, 0x50, 0xbe, 0xed, 0xbe, 0x20, 0x3e, 0x27, 0x20, 0x85, 0x3e,
  0x56, 0x30, 0x5f, 0xbe, 0xe4, 0xbb, 0xb7, 0x3d, 0x4c, 0xbc, 0xbc, 0x3d,
  0x40, 0x9d, 0x9c, 0xbe, 0x00, 0x20, 0x30, 0x3d, 0x8b, 0x78, 0x33, 0x3e,
  0x5b, 0xc4, 0xbf, 0xbe, 0xbc, 0x57, 0x36, 0x3e, 0x27, 0x94, 0xbd, 0xbc,
  0x31, 0x0d, 0xb7, 0xbe, 0x13, 0x25, 0x75, 0xbc, 0x3b, 0x18, 0xc0, 0x3e,
  0xf6, 0x98, 0xa8, 0xbe, 0x78, 0x90, 0x90, 0xbd, 0x67, 0x9b, 0x85, 0x3e,
  0x57, 0x4c, 0x99, 0xbe, 0x3c, 0xe7, 0x90, 0x3d, 0x6a, 0x02, 0x27, 0x3e,
  0xe1, 0xbd, 0x38, 0xbd, 0x78, 0x19, 0xf0, 0x3d, 0x52, 0x87, 0xf0, 0xbd,
  0x74, 0x66, 0x97, 0xbc, 0xba, 0x9f, 0x08, 0xbb, 0x90, 0xe9, 0x06, 0xbe,
  0x70, 0xd7, 0x30, 0x3e, 0x35, 0x94, 0x05, 0x3e, 0x5a, 0x45, 0x42, 0x3e,
  0xf3, 0x33, 0x1d, 0x3e, 0xd8, 0xb4, 0x1b, 0x3d, 0x4e, 0xee, 0xb2, 0xbd,
  0x12, 0x0f, 0x21, 0x3d, 0xa1, 0xac, 0xc3, 0x3d, 0x26, 0x3f, 0x91, 0x3c,
  0x5f, 0x11, 0xa3, 0xbb, 0xd0, 0x6d, 0x28, 0xbd, 0xd4, 0x47, 0x48, 0x3e,
  0xb5, 0xcd, 0x5c, 0xbe, 0x6d, 0x66, 0x34, 0x3e, 0x2a, 0xfd, 0x92, 0x3e,
  0x2e, 0xf6, 0x8f, 0xbe, 0x0e, 0x6f, 0x93, 0xbd, 0xb0, 0x6c, 0xef, 0xbd,
  0x59, 0x3e, 0x8a, 0xbe, 0xac, 0xbb, 0x60, 0xbe, 0x82, 0xc3, 0x01, 0xbe,
  0xa5, 0x96, 0x31, 0x3c, 0xef, 0x75, 0x49, 0x3d, 0xa6, 0xf6, 0x43, 0x3e,
  0xa3, 0x68, 0x82, 0xbe, 0x05, 0x42, 0x91, 0x3a, 0xad, 0x8f, 0x8a, 0xbd,
  0xe7, 0x3f, 0x15, 0xbe, 0x0b, 0x01, 0x31, 0x3e, 0xb0, 0x53, 0x28, 0xbe,
  0xd1, 0x10, 0x37, 0x3e, 0x54, 0x6c, 0x0a, 0x3e, 0xa8, 0xad, 0xc2, 0xbe,
  0x5b, 0xda, 0x5c, 0x3e, 0xc2, 0x9d, 0xa0, 0x3c, 0x17, 0x59, 0x9c, 0xbe,
  0x54, 0xa8, 0x21, 0xbe, 0x64, 0xa2, 0x84, 0x3e, 0xc5, 0x28, 0xb9, 0xbe,
  0xea, 0xd2, 0x33, 0xbe, 0xb6, 0x60, 0x89, 0x3e, 0xa5, 0xf3, 0xd8, 0xbe,
  0xcb, 0x92, 0xf0, 0x3d, 0xfb, 0x53, 0x9f, 0x3e, 0xd1, 0xd1, 0x78, 0xbe,
  0xd2, 0x88, 0x81, 0x3e, 0x4c, 0x60, 0x8b, 0x3e, 0xaa, 0xb4, 0xa4, 0xbe,
  0x9e, 0xca, 0x85, 0x3e, 0xda, 0x4b, 0xb0, 0xbd, 0x96, 0x0d, 0xa5, 0xbe,
  0x77, 0x72, 0x66, 0x3e, 0xd7, 0x10, 0xbc, 0xbd, 0xd9, 0xa9, 0xa4, 0xbe,
  0x6b, 0xca, 0x39, 0xbd, 0x02, 0x5d, 0x8a, 0x3c, 0x6a, 0x2e, 0xe0, 0xbd,
  0x7d, 0x58, 0xdb, 0xbd, 0x96, 0xeb, 0x90, 0x3d, 0x50, 0x67, 0xd8, 0xbe,
  0x8f, 0xb3, 0x2f, 0x3e, 0xe9, 0x0f, 0x2b, 0x3e, 0xb8, 0xcc, 0x53, 0xbe,
  0x87, 0x47, 0x14, 0x3e, 0x07, 0xfc, 0x81, 0xbd, 0x30, 0x51, 0x75, 0xbe,
  0x2e, 0xd1, 0x06, 0xbe, 0x39, 0x49, 0x9b, 0x3e, 0x5a, 0x03, 0xca, 0xbd,
  0x7f, 0x15, 0x3e, 0x3e, 0x06, 0x92, 0x18, 0x3e, 0xbb, 0x42, 0xa2, 0xbe,
  0x38, 0x35, 0x13, 0xbd, 0x3b, 0x51, 0x03, 0x3e, 0xd1, 0xb9, 0xd4, 0xbd,
  0x97, 0xc3, 0xbe, 0xbd, 0x54, 0x11, 0x9a, 0x3e, 0xf5, 0x1d, 0x96, 0xbe,
  0x3f, 0x82, 0x44, 0xbe, 0x7b, 0x59, 0x9a, 0x3d, 0xfa, 0x44, 0x05, 0xbe,
  0x9b, 0xcb, 0x18, 0xbe, 0x1e, 0xc5, 0x9a, 0xbd, 0x31, 0x58, 0xce, 0xbe,
  0x00, 0x0c, 0x40, 0xbd, 0x7d, 0xa2, 0xe9, 0xbd, 0xcf, 0x50, 0xaa, 0xbe,
  0x78, 0x2b, 0xb7, 0xbe, 0xcc, 0x5c, 0xe4, 0x3d, 0xe5, 0x26, 0x80, 0xbe,
  0x72, 0xe3, 0x8c, 0x3d, 0x99, 0x3d, 0xb6, 0xbd, 0xda, 0x7c, 0x2c, 0xbc,
  0x43, 0x23, 0x1d, 0xbe, 0x6b, 0xcb, 0xc3, 0x3c, 0xc7, 0xa1, 0xd4, 0xbc,
  0x0b, 0xa7, 0x56, 0xbe, 0x8c, 0x9c, 0x83, 0x3e, 0xc5, 0x61, 0x33, 0xbe,
  0xdd, 0xd9, 0x56, 0xbe, 0xeb, 0x8d, 0xbd, 0xbd, 0xe0, 0xc0, 0x08, 0xbe,
  0xa6, 0xdf, 0x0e, 0x3e, 0xf6, 0x26, 0x4c, 0x3e, 0x94, 0x0c, 0xc3, 0x3d,
  0x8f, 0x9a, 0x85, 0xbe, 0x61, 0x4a, 0xb3, 0x3d, 0xa2, 0xba, 0xca, 0xbd,
  0xb7, 0x62, 0x09, 0x3e, 0x8e, 0x3b, 0x96, 0x3d, 0x21, 0x2e, 0xce, 0x3d,
  0xbd, 0xd1, 0x0f, 0x3e, 0x79, 0x5c, 0x7f, 0x3e, 0xf0, 0xc3, 0xfe, 0x3c,
  0x9c, 0x91, 0x31, 0xbe, 0xac, 0x74, 0xa9, 0x3c, 0x7f, 0x16, 0x97, 0xbd,
  0xbf, 0x88, 0xdd, 0x3d, 0x09, 0xd2, 0x64, 0x3e, 0xee, 0x39, 0x8c, 0xbd,
  0x0b, 0x5c, 0x8c, 0xbd, 0x24, 0x1d, 0x14, 0x3c, 0x47, 0xa8, 0x34, 0xbe,
  0xd0, 0x49, 0x3c, 0x3e, 0x60, 0x41, 0x14, 0xbc, 0x7e, 0xfd, 0x2b, 0x3d,
  0xd5, 0x07, 0x7f, 0x3e, 0x84, 0xcc, 0x67, 0xbd, 0x02, 0x6c, 0x86, 0xbc,
  0xa0, 0x87, 0x14, 0x3e, 0x98, 0x9a, 0x87, 0x3e, 0x1b, 0xcf, 0x63, 0x3d,
  0xb6, 0xff, 0x9d, 0xbb, 0xc5, 0x6e, 0x2f, 0x3e, 0x1c, 0xff, 0x37, 0x3e,
  0x19, 0x8a, 0x04, 0x3e, 0x8a, 0xcc, 0x1d, 0x3e, 0xe5, 0xc6, 0x2e, 0xbe,
  0x62, 0x4e, 0x30, 0xbe, 0x8d, 0xff, 0x25, 0x3e, 0x5b, 0x1f, 0x42, 0x3e,
  0x0c, 0xe2, 0x2c, 0xbd, 0x96, 0xc0, 0x76, 0x3e, 0x81, 0x74, 0x87, 0xbd,
  0x7e, 0x8c, 0x81, 0x3e, 0x9d, 0x6c, 0x02, 0x3e, 0x86, 0xb0, 0x7c, 0x3d,
  0x6f, 0xf6, 0xf8, 0x3c, 0xad, 0xdc, 0x85, 0xbd, 0x45, 0xdf, 0xdc, 0x3e,
  0x35, 0x2f, 0x16, 0xbe, 0xb4, 0x13, 0xb9, 0x3d, 0x73, 0x7c, 0x81, 0x3e,
  0x5c, 0x84, 0x4f, 0xbe, 0x71, 0xf4, 0x97, 0xbd, 0x20, 0x1a, 0xa4, 0x3e,
  0x4f, 0x54, 0x6e, 0x3d, 0xc1, 0xc8, 0x41, 0xbd, 0xc8, 0xec, 0xc4, 0x3e,
  0xe8, 0x79, 0x97, 0xbe, 0x6e, 0xa3, 0x89, 0x3e, 0xf9, 0xc9, 0x33, 0x3e,
  0x6a, 0x70, 0xdc, 0x3c, 0xbc, 0xc0, 0x9a, 0xbc, 0x53, 0x10, 0x51, 0x3e,
  0x26, 0x2f, 0x75, 0xbe, 0xe4, 0x08, 0x33, 0x3e, 0x74, 0xf7, 0x10, 0x3e,
  0x16, 0xdc, 0x80, 0x3d, 0xf2, 0xac, 0x65, 0x3e, 0x56, 0x02, 0x57, 0x3e,
  0xc3, 0x6d, 0x56, 0xbe, 0x0f, 0x69, 0xa9, 0xbc, 0x50, 0x31, 0x27, 0x3e,
  0x2a, 0x19, 0x7d, 0x3e, 0x5b, 0xc4, 0x3a, 0x3e, 0x71, 0x66, 0x5d, 0x3e,
  0x70, 0x65, 0x90, 0x3e, 0xa6, 0xa1, 0x97, 0x3e, 0xc8, 0xea, 0x81, 0x3e,
  0xcf, 0xb9, 0x55, 0x3e, 0x25, 0x1a, 0x5c, 0x3d, 0xc2, 0x0f, 0x89, 0x3e,
  0x53, 0x33, 0xd8, 0x3e, 0xa6, 0x80, 0x7b, 0x3c, 0x5b, 0x67, 0x4b, 0x3e,
  0xa5, 0xd5, 0x6d, 0x3d, 0x39, 0xee, 0x77, 0xbc, 0x96, 0x8c, 0x8e, 0x3d,
  0xcf, 0x9c, 0x9e, 0x3e, 0xbf, 0xa1, 0x7f, 0x3e, 0x26, 0xe7, 0xa3, 0x3e,
  0x9c, 0x80, 0x67, 0x3e, 0x3a, 0x2e, 0x52, 0xbd, 0x11, 0x0b, 0xf6, 0xbc,
  0x9a, 0x70, 0xc0, 0x3e, 0x57, 0xac, 0xa8, 0x3e, 0x0a, 0xf1, 0x3e, 0x3e,
  0x31, 0xc2, 0x2f, 0xbd, 0xcf, 0x6d, 0x8a, 0x3e, 0x93, 0xe8, 0xc8, 0xbc,
  0x52, 0xff, 0x87, 0x3e, 0x79, 0x9e, 0x78, 0x3e, 0xb1, 0xa6, 0xac, 0x3e,
  0x66, 0x84, 0x76, 0x3d, 0x3e, 0xd6, 0xbe, 0xbd, 0x38, 0x3d, 0x9b, 0x3e,
  0xa0, 0x39, 0x03, 0xbf, 0xa2, 0x8e, 0x4b, 0x3e, 0xf3, 0x49, 0xd5, 0x3e,
  0xa2, 0x29, 0x87, 0xbe, 0x52, 0x15, 0x6a, 0x3d, 0xe4, 0x64, 0xef, 0x3e,
  0xec, 0x39, 0x30, 0xbe, 0x80, 0x5d, 0x65, 0x3d, 0xc8, 0xcc, 0x6e, 0x3e,
  0x55, 0x7d, 0x39, 0xbe, 0xfe, 0x0c, 0x7e, 0x3e, 0x0f, 0x36, 0xfa, 0x3d,
  0x64, 0x25, 0xfe, 0xbe, 0xf1, 0x07, 0x01, 0xbe, 0xe9, 0xb1, 0xd4, 0x3e,
  0xb5, 0x73, 0xac, 0xbe, 0xd2, 0x9e, 0x42, 0x3e, 0x1e, 0x71, 0xd4, 0x3e,
  0xee, 0xce, 0xfd, 0xbe, 0xc1, 0x59, 0x1f, 0xbe, 0x44, 0x38, 0x92, 0x3e,
  0x49, 0x90, 0xf8, 0xbe, 0xc9, 0xe1, 0x12, 0x3e, 0x19, 0xc5, 0x12, 0x3e,
  0xff, 0x90, 0xfd, 0xbe, 0x11, 0x85, 0x2d, 0xbe, 0xca, 0x59, 0xdc, 0xbb,
  0x62, 0x30, 0x78, 0xbe, 0x7e, 0x47, 0x88, 0xbd, 0x3d, 0xfe, 0x86, 0x3e,
  0x08, 0x0d, 0x8a, 0xbd, 0xda, 0x44, 0x93, 0xbc, 0x3d, 0x8f, 0x84, 0xbd,
  0x90, 0x92, 0x08, 0xbe, 0x1d, 0x8e, 0x92, 0xbd, 0x04, 0xe6, 0xa2, 0x3e,
  0x39, 0x2c, 0x21, 0xbe, 0xf7, 0x91, 0xa6, 0x3d, 0x7d, 0x79, 0x08, 0xbe,
  0xd8, 0x5a, 0x95, 0xbe, 0x92, 0x9d, 0x3e, 0x3d, 0xd3, 0x83, 0x85, 0x3d,
  0x29, 0x25, 0x73, 0xbd, 0xb9, 0xf7, 0xf8, 0x3d, 0xe1, 0xa6, 0x53, 0x3e,
  0x36, 0x2e, 0xb1, 0x3d, 0x43, 0x31, 0x22, 0xbe, 0xc0, 0xfa, 0x71, 0x3e,
  0x55, 0x48, 0xf4, 0x3c, 0x12, 0x67, 0x6a, 0x3e, 0x34, 0xe5, 0xa3, 0x3e,
  0xfc, 0xb7, 0xfe, 0x3d, 0x1a, 0x4d, 0x4d, 0xbd, 0xcd, 0xfc, 0xc3, 0xbc,
  0x08, 0xcd, 0xa9, 0xbd, 0xe3, 0xcb, 0x5d, 0x3e, 0x9e, 0x31, 0x8c, 0x3d,
  0x6b, 0x51, 0x93, 0xbe, 0x5a, 0xfb, 0x26, 0xbe, 0x90, 0x5f, 0x39, 0xbd,
  0x24, 0x9c, 0xdf, 0x3e, 0xe4, 0x8e, 0x17, 0xbe, 0x54, 0x67, 0xb6, 0xbe,
  0x58, 0x29, 0xef, 0x3d, 0xe7, 0xb6, 0x14, 0x3e, 0x20, 0x0d, 0xa9, 0xbe,
  0xf6, 0x2b, 0x80, 0x3e, 0xb4, 0xe8, 0xb2, 0x3c, 0x41, 0xbb, 0x16, 0xbe,
  0x03, 0x11, 0xb0, 0x3e, 0xb3, 0x48, 0x3c, 0xbe, 0x22, 0x75, 0x32, 0xbe,
  0xa6, 0x4e, 0xe4, 0x3e, 0x20, 0xf0, 0x0b, 0xbe, 0xef, 0xe0, 0x01, 0xbf,
  0x50, 0x10, 0x0e, 0x3f, 0xce, 0xc9, 0x26, 0xbe, 0xbd, 0x42, 0x28, 0xbe,
  0x34, 0x20, 0x0b, 0x3f, 0x92, 0x9b, 0x1a, 0x3e, 0x99, 0xaa, 0xd1, 0xbe,
  0x5f, 0xda, 0xf0, 0x3e, 0x5b, 0xac, 0x6b, 0xbe, 0xc8, 0x15, 0x6d, 0xbe,
  0x1f, 0x31, 0xa7, 0x3e, 0x02, 0x3a, 0xac, 0x3c, 0x8c, 0x04, 0xcd, 0xbe,
  0x16, 0xe3, 0x8d, 0x3e, 0xc6, 0x14, 0x24, 0x3c, 0xbb, 0x03, 0x2b, 0xbe,
  0x3d, 0x1b, 0xb6, 0x3e, 0xfc, 0xb6, 0x0d, 0x3e, 0x7f, 0x91, 0x92, 0xbe,
  0xc3, 0x51, 0xf4, 0x3e, 0x58, 0xc5, 0x08, 0xba, 0x62, 0x04, 0x66, 0x3c,
  0xd6, 0x86, 0xde, 0x3e, 0xec, 0xd3, 0x14, 0x3e, 0x57, 0x8f, 0xb4, 0xbd,
  0x72, 0xae, 0xec, 0x3e, 0x8e, 0x52, 0x47, 0xbe, 0x61, 0xa9, 0x1c, 0x3e,
  0x81, 0x55, 0xa9, 0x3d, 0xa4, 0x2d, 0x86, 0x3d, 0xf4, 0xe1, 0x59, 0xb7,
  0xe3, 0x94, 0xe6, 0x3c, 0x30, 0x3c, 0x72, 0xbe, 0xdb, 0xd6, 0x2c, 0xbe,
  0x72, 0x3f, 0xc1, 0x3e, 0x1d, 0xe3, 0x70, 0x3b, 0xb3, 0x02, 0x9f, 0x3d,
  0x13, 0x3a, 0xe3, 0x3e, 0xee, 0x2a, 0xe2, 0xbb, 0xe8, 0xc3, 0x86, 0x3c,
  0x2a, 0x22, 0xdc, 0x3e, 0x07, 0x92, 0x0c, 0x3c, 0xd7, 0xf3, 0x6d, 0xbe,
  0x4d, 0x4e, 0xcb, 0x3e, 0xf0, 0x46, 0xd8, 0x3d, 0x5c, 0x78, 0x95, 0xbe,
  0xd8, 0x3e, 0xb8, 0xbd, 0x93, 0x64, 0x6e, 0xbe, 0xf0, 0xc9, 0xf4, 0xbc,
  0xdd, 0x00, 0x22, 0xbe, 0x15, 0xe8, 0x62, 0xbe, 0xe4, 0x9a, 0x6a, 0xbe,
  0x84, 0x6b, 0x37, 0xbd, 0x11, 0xc4, 0xf3, 0xbd, 0x20, 0x1b, 0x8b, 0x3d,
  0x08, 0x76, 0x21, 0x3d, 0xb0, 0x55, 0xe7, 0x3d, 0x67, 0x43, 0x60, 0xbe,
  0x88, 0x4e, 0x93, 0x3d, 0x64, 0xde, 0x28, 0xbd, 0x5c, 0x8e, 0xe2, 0x3d,
  0xd0, 0x04, 0xb1, 0x3d, 0xe8, 0x89, 0x0f, 0xbe, 0x00, 0xf1, 0x46, 0x3a,
  0x75, 0x49, 0xed, 0xbd, 0x47, 0x91, 0x32, 0xbe, 0x78, 0xe1, 0x9b, 0xbd,
  0x9c, 0x4b, 0x73, 0xbd, 0x36, 0xfa, 0x1f, 0x3e, 0x26, 0x95, 0x2c, 0xbe,
  0x04, 0x25, 0x75, 0xbd, 0x71, 0x63, 0xe1, 0xbd, 0x88, 0x5a, 0x4d, 0xbe,
  0x36, 0x40, 0x4c, 0x3e, 0xb0, 0xc0, 0xc9, 0x3c, 0x37, 0xa8, 0x51, 0xbe,
  0x80, 0xc8, 0xd6, 0x3c, 0x90, 0xc3, 0xf2, 0xbc, 0x61, 0x7b, 0x3c, 0xbe,
  0x61, 0x80, 0x4f, 0xbe, 0xc2, 0x6b, 0x44, 0x3e, 0xfc, 0x83, 0xe6, 0x3d,
  0xb8, 0xf1, 0xc6, 0x3d, 0x1c, 0x25, 0xb0, 0x3d, 0xa0, 0x1d, 0xb4, 0x3c,
  0x75, 0x0d, 0x28, 0xbe, 0x98, 0x7e, 0x93, 0x3d, 0xbd, 0x6d, 0x4f, 0xbe,
  0x00, 0xe6, 0xf1, 0xba, 0x48, 0x5a, 0xdd, 0x3d, 0x9c, 0x62, 0x36, 0x3e,
  0xd8, 0xd0, 0xc3, 0xbd, 0xa0, 0x09, 0x32, 0x3d, 0x80, 0x81, 0xae, 0x3d,
  0x09, 0x3e, 0x4f, 0xbe, 0x80, 0x5d, 0x16, 0x3e, 0xa7, 0x11, 0x45, 0xbe,
  0xfc, 0x1a, 0x0e, 0xbd, 0x2a, 0x31, 0x42, 0x3e, 0x10, 0x34, 0x5a, 0xbd,
  0x24, 0x4b, 0xb1, 0x3d, 0x01, 0xa2, 0x35, 0xbe, 0x08, 0xa9, 0x28, 0xbe,
  0x1c, 0x0b, 0xca, 0x3d, 0xb0, 0x27, 0x5a, 0xbd, 0xf6, 0x28, 0xa2, 0xbd,
  0xce, 0xb6, 0x33, 0x3e, 0x6e, 0x29, 0x91, 0xbd, 0x2a, 0xb9, 0x48, 0xbe,
  0xf8, 0xa6, 0xed, 0x3d, 0xfe, 0x3a, 0x10, 0x3e, 0xcb, 0x18, 0x12, 0xbe,
  0xa0, 0x90, 0x21, 0xbe, 0xf8, 0x97, 0xbd, 0x3d, 0xce, 0xa6, 0x36, 0x3e,
  0xa4, 0x2e, 0xb1, 0x3d, 0xf5, 0x3f, 0x36, 0xbe, 0x80, 0xa9, 0x20, 0xbd,
  0xb8, 0x80, 0x91, 0xbc, 0x48, 0xa7, 0x28, 0x3d, 0x50, 0x89, 0x7f, 0x3d,
  0xad, 0x02, 0x6c, 0xbe, 0x00, 0xbf, 0x12, 0x3b, 0xf0, 0x7d, 0xcc, 0xbc,
  0x1c, 0xec, 0x15, 0xbe, 0x44, 0x37, 0xee, 0xbd, 0x54, 0xcf, 0x32, 0xbe,
  0x10, 0x95, 0xbd, 0x3d, 0x38, 0x45, 0x7a, 0xbd, 0x44, 0x5b, 0x18, 0xbe,
  0xa4, 0xa4, 0x6c, 0xbe, 0x5d, 0xc4, 0x11, 0xbe, 0x64, 0x2c, 0x49, 0x3e,
  0x3c, 0x9f, 0x0c, 0xbe, 0x60, 0x3e, 0x1b, 0x3e, 0x83, 0x43, 0x4a, 0xbe,
  0x58, 0x69, 0x07, 0xbe, 0x00, 0xd3, 0x23, 0xbb, 0x56, 0x91, 0x90, 0xbd,
  0x54, 0x40, 0x13, 0xbd, 0x30, 0x43, 0x8a, 0xbd, 0x31, 0xbb, 0x48, 0xbe,
  0x44, 0x70, 0x55, 0x3e, 0x02, 0x00, 0x19, 0x3e, 0x0e, 0xa6, 0x29, 0xbe,
  0x2d, 0xbc, 0x39, 0xbe, 0xe8, 0x8d, 0xb0, 0xbd, 0xb0, 0xfb, 0x54, 0xbd,
  0x38, 0x02, 0x00, 0xbe, 0x62, 0x5c, 0x25, 0xbe, 0x5f, 0xc9, 0x10, 0xbe,
  0x14, 0xf2, 0x64, 0x3e, 0xee, 0x7f, 0x9e, 0xbd, 0x40, 0xf5, 0x6d, 0x3c,
  0x8a, 0xdd, 0x44, 0xbe, 0x78, 0xd2, 0xdc, 0xbc, 0x44, 0x41, 0x16, 0xbe,
  0x70, 0x7d, 0x16, 0x3c, 0xe0, 0x7e, 0x54, 0x3c, 0x18, 0x6e, 0x70, 0x3d,
  0x34, 0x72, 0xb0, 0xbd, 0x66, 0x25, 0x01, 0x3e, 0x90, 0x34, 0xd0, 0x3c,
  0x08, 0x28, 0x0f, 0xbe, 0x80, 0x12, 0x01, 0xbb, 0x96, 0xb9, 0x4b, 0x3e,
  0x60, 0x5e, 0xc9, 0x3e, 0x60, 0x24, 0x8c, 0xbe, 0x8e, 0x6a, 0x81, 0xbc,
  0xe2, 0xdf, 0x86, 0x3e, 0xf4, 0xb3, 0x0c, 0xbe, 0xfb, 0xbc, 0xcb, 0xbd,
  0x14, 0x9b, 0x4f, 0x3d, 0x79, 0xa1, 0x8d, 0xbe, 0xeb, 0xf4, 0x83, 0x3e,
  0xf3, 0xc8, 0x9c, 0x3d, 0x7b, 0xea, 0x29, 0xbe, 0x92, 0xda, 0x85, 0xbd,
  0x09, 0xb7, 0xd1, 0x3e, 0x77, 0xcc, 0xa1, 0x3b, 0x44, 0xc7, 0xc8, 0xbd,
  0x72, 0x40, 0xc0, 0x3e, 0x72, 0xd5, 0x0f, 0x3e, 0x6c, 0xf1, 0x23, 0xbe,
  0xf8, 0xf5, 0x66, 0x3e, 0xf5, 0x4e, 0x78, 0xbc, 0x42, 0xf5, 0x18, 0xbe,
  0x81, 0xfa, 0xae, 0x3e, 0x22, 0x3c, 0x34, 0xbe, 0x6b, 0x66, 0x96, 0x3e,
  0x01, 0x4d, 0x8d, 0x3d, 0xf7, 0xd8, 0x0c, 0x3d, 0xb5, 0xc0, 0x91, 0xbd,
  0x1a, 0x04, 0x77, 0x3d, 0x23, 0x59, 0xef, 0x3d, 0xe3, 0x44, 0x1f, 0x3e,
  0xb9, 0x66, 0x30, 0xbd, 0x30, 0x3b, 0x2e, 0x3e, 0xa1, 0x06, 0xc2, 0xbd,
  0xf6, 0xe9, 0x5f, 0x3e, 0xcb, 0x43, 0x84, 0x3d, 0xf9, 0xd8, 0x64, 0x3d,
  0xa8, 0xcf, 0x68, 0x3e, 0x77, 0x87, 0x70, 0xbe, 0x8d, 0xb1, 0x32, 0xbe,
  0xc5, 0xbc, 0xa0, 0x3d, 0x15, 0x59, 0x61, 0xbe, 0x5e, 0x02, 0x45, 0xbe,
  0x94, 0xef, 0x1f, 0xbc, 0x02, 0x39, 0xb6, 0xbd, 0xeb, 0xd3, 0x4b, 0xbc,
  0x1c, 0x97, 0x60, 0x3e, 0x1d, 0xd8, 0x34, 0xbe, 0x67, 0xed, 0xbf, 0x3d,
  0xbe, 0xaa, 0x49, 0x3e, 0x99, 0x75, 0xb3, 0xbd, 0xf6, 0x03, 0x17, 0xbe,
  0x5d, 0xac, 0x3b, 0x3c, 0x18, 0x84, 0x0a, 0x3e, 0x08, 0x0b, 0x39, 0xbe,
  0x55, 0x59, 0x68, 0x3e, 0x0f, 0x54, 0x62, 0xbd, 0x57, 0x5a, 0x30, 0x3e,
  0x6c, 0x43, 0x80, 0x3d, 0x13, 0x09, 0x2d, 0xbe, 0xec, 0x25, 0xed, 0xbd,
  0xb4, 0xe7, 0x5b, 0x3d, 0xfd, 0x6e, 0x5a, 0xbe, 0x1f, 0xa2, 0xdd, 0x3d,
  0xf5, 0xdf, 0x1d, 0x3c, 0x26, 0xea, 0x8b, 0x3d, 0xa9, 0xbf, 0x26, 0xbe,
  0x41, 0xd4, 0x6b, 0x3d, 0x8d, 0xc2, 0xc5, 0x3b, 0x72, 0xed, 0x11, 0x3e,
  0x81, 0xaf, 0x02, 0x3e, 0x0f, 0x99, 0x37, 0x3b, 0x63, 0xae, 0x56, 0x3b,
  0x7a, 0x3c, 0x14, 0x3e, 0x5b, 0x0b, 0x96, 0xbd, 0xe3, 0x04, 0xe0, 0x3c,
  0x1d, 0xa3, 0xd3, 0x3d, 0x8c, 0x89, 0x9d, 0x3c, 0xac, 0x1b, 0x5e, 0x3e,
  0xb0, 0xc4, 0x83, 0x3c, 0x90, 0x47, 0xdc, 0xbc, 0x8d, 0xbb, 0x59, 0xbe,
  0x7a, 0xa7, 0x2f, 0xbe, 0x58, 0x4f, 0x0c, 0x3e, 0xac, 0x33, 0x3c, 0xbe,
  0x5f, 0x1d, 0xbb, 0xbc, 0x73, 0xe8, 0xc8, 0x3c, 0xf3, 0x55, 0x07, 0xbe,
  0x0d, 0x81, 0x5a, 0x3e, 0x69, 0x57, 0x23, 0xbe, 0x70, 0xe0, 0x44, 0xbe,
  0x60, 0xce, 0xc6, 0x3d, 0xdc, 0x2c, 0xf3, 0xbc, 0x8a, 0x7e, 0xaf, 0x3c,
  0xb9, 0xcb, 0x46, 0x3c, 0x44, 0x6e, 0xd0, 0xbd, 0x48, 0x67, 0xcd, 0xbd,
  0xe4, 0x10, 0x6f, 0xbe, 0xb1, 0xcc, 0x6f, 0xbd, 0xdf, 0x00, 0x4f, 0x3d,
  0x95, 0x43, 0x06, 0xbe, 0xd3, 0xfb, 0x4c, 0xbe, 0x77, 0x2d, 0xd9, 0xbd,
  0x8c, 0xd0, 0x96, 0xbd, 0x0f, 0x50, 0x98, 0x3d, 0x53, 0x4f, 0x13, 0xbe,
  0x3b, 0xa4, 0x53, 0x3e, 0x81, 0xf6, 0x6c, 0xbe, 0x6b, 0xe8, 0x48, 0x3e,
  0x48, 0x76, 0x2e, 0xbd, 0xc2, 0x3f, 0x58, 0xbe, 0xf3, 0xc3, 0x47, 0x3e,
  0x5b, 0x3e, 0x28, 0xbe, 0xd8, 0x9c, 0x4f, 0x3d, 0xea, 0x7c, 0xe0, 0x3c,
  0x13, 0x7f, 0xae, 0x3a, 0xeb, 0x34, 0x4b, 0xbe, 0xcf, 0xb0, 0x19, 0x3e,
  0x72, 0x88, 0x4e, 0x3e, 0xb4, 0x77, 0x4a, 0xbe, 0x94, 0x42, 0xb7, 0x3d,
  0x78, 0xf3, 0x1c, 0x3f, 0x44, 0x84, 0xfd, 0xbc, 0x5d, 0x6c, 0xc9, 0xbd,
  0x78, 0x08, 0x11, 0x3f, 0x5f, 0xd4, 0x33, 0x3e, 0x0f, 0xf7, 0x52, 0xbe,
  0x56, 0x51, 0x01, 0x3f, 0x15, 0xcd, 0xb6, 0x3d, 0xed, 0x2f, 0xb7, 0xbd,
  0x79, 0x59, 0x1e, 0x3f, 0xf7, 0x50, 0x23, 0x3d, 0xc9, 0xe5, 0xaf, 0xbe,
  0x74, 0xde, 0xba, 0x3e, 0x11, 0x36, 0xc5, 0xbc, 0xfa, 0x09, 0x9b, 0xbe,
  0x55, 0x10, 0xb6, 0x3e, 0x3e, 0x82, 0x85, 0x3e, 0x9a, 0xf9, 0x0b, 0xbe,
  0x7d, 0x58, 0xa9, 0x3e, 0x0d, 0x47, 0xdc, 0x3d, 0x79, 0xaf, 0x4e, 0xbe,
  0x43, 0x37, 0x00, 0x3f, 0x1f, 0x21, 0xb3, 0x3e, 0x3e, 0xa3, 0x6f, 0xbe,
  0xb3, 0x65, 0x8b, 0x3e, 0xd8, 0xb5, 0xd8, 0x3d, 0xa1, 0xb5, 0xb2, 0xbd,
  0xcd, 0xf9, 0x25, 0x3e, 0x11, 0x4b, 0xb4, 0x3e, 0xf8, 0x4c, 0x67, 0xbe,
  0x26, 0x75, 0xe7, 0xbd, 0x92, 0x34, 0x47, 0x3d, 0x01, 0x36, 0x39, 0xbe,
  0x4e, 0x67, 0x7e, 0x3e, 0x82, 0x7d, 0xcf, 0x3e, 0xa2, 0x52, 0x09, 0x3e,
  0xad, 0x05, 0xc4, 0x3d, 0x09, 0xda, 0xd9, 0x3d, 0x41, 0xde, 0x4a, 0x3d,
  0x4e, 0x62, 0xa9, 0x3e, 0x17, 0xf2, 0x92, 0x3e, 0x87, 0xd4, 0xaa, 0x3d,
  0xcc, 0x2b, 0x51, 0x3e, 0xdb, 0xd6, 0xd4, 0x3e, 0x2f, 0x16, 0xd2, 0xbd,
  0x00, 0xb0, 0x09, 0xbc, 0x66, 0x5d, 0xbd, 0x3e, 0x04, 0x9c, 0x50, 0x3e,
  0x04, 0x80, 0x1d, 0xbc, 0xde, 0x67, 0xbb, 0xbc, 0xc3, 0xff, 0x1e, 0x3e,
  0xab, 0x39, 0xd6, 0x3c, 0xb8, 0x21, 0x0f, 0x3e, 0xa1, 0xb0, 0xe8, 0x3c,
  0xf2, 0xc6, 0x1a, 0x3e, 0x3e, 0x99, 0xde, 0x3e, 0x61, 0x1e, 0x09, 0x3e,
  0x3f, 0x70, 0xf7, 0x3c, 0x8e, 0x5f, 0x6c, 0x3e, 0x6c, 0x99, 0x1d, 0x3e,
  0xed, 0xa9, 0x1d, 0xbe, 0xb7, 0x8b, 0xce, 0xbd, 0xdc, 0xcf, 0x43, 0x3e,
  0x2b, 0x95, 0xe3, 0xbe, 0xb3, 0x1a, 0x99, 0xbe, 0x42, 0xb5, 0x96, 0x3e,
  0x38, 0x03, 0x14, 0xbe, 0xd5, 0x9a, 0xce, 0x3d, 0x35, 0x7b, 0xd5, 0x3e,
  0xa1, 0x17, 0xd6, 0xbe, 0x6c, 0xa7, 0xdc, 0x3c, 0xa6, 0x36, 0x43, 0x3e,
  0x60, 0x84, 0xed, 0xbe, 0x49, 0x49, 0x33, 0xba, 0xa3, 0x65, 0xd6, 0x3d,
  0x49, 0x09, 0x6c, 0xbe, 0x50, 0xa6, 0xc0, 0x3d, 0x22, 0x45, 0x8f, 0x3c,
  0xea, 0x4d, 0xaa, 0xbe, 0x95, 0xb7, 0xb4, 0x3d, 0xbf, 0x99, 0x39, 0x3e,
  0x90, 0x94, 0xdc, 0xbe, 0x41, 0x28, 0x81, 0xbe, 0x11, 0xfc, 0x21, 0x3d,
  0x41, 0xca, 0x03, 0xbf, 0x92, 0x81, 0x19, 0x3d, 0x5b, 0xc2, 0x9e, 0x3e,
  0x63, 0x00, 0xc8, 0xbd, 0x4b, 0x0f, 0x86, 0x3d, 0x9a, 0x99, 0x18, 0x3e,
  0x59, 0x7d, 0x26, 0xbd, 0xcc, 0x3f, 0xb3, 0xbe, 0xe9, 0x0c, 0x79, 0x3e,
  0x35, 0xc3, 0x2a, 0xbd, 0x58, 0x7b, 0x64, 0x3d, 0xe8, 0x2e, 0x6f, 0xbc,
  0x8a, 0x30, 0x90, 0xbe, 0x54, 0x54, 0xd5, 0x3d, 0x0c, 0x07, 0xb2, 0x3e,
  0xb2, 0xdd, 0xe3, 0xbe, 0x94, 0x85, 0xc1, 0xbd, 0xa5, 0x79, 0x92, 0x3e,
  0xd4, 0x9c, 0x35, 0xbe, 0x8e, 0xe1, 0x18, 0xbe, 0x78, 0xad, 0x99, 0x3e,
  0xbd, 0x8c, 0xc1, 0xbe, 0x07, 0xa2, 0xb9, 0xbe, 0xb8, 0x6d, 0x58, 0x3d,
  0x80, 0x42, 0xe7, 0xbc, 0xfe, 0x6c, 0x8b, 0xbe, 0x77, 0xa7, 0xbb, 0x3d,
  0x34, 0x43, 0x54, 0xbd, 0xe1, 0x1f, 0xf5, 0xbd, 0x19, 0xf1, 0x43, 0x3e,
  0xba, 0x0d, 0xab, 0xbe, 0x68, 0xa3, 0x95, 0xbe, 0xd5, 0x44, 0xaf, 0x3e,
  0xaf, 0x76, 0x48, 0xbe, 0x19, 0xd1, 0xfe, 0xbd, 0x5b, 0xec, 0x3e, 0x3a,
  0x3c, 0xf1, 0x19, 0xbd, 0xdc, 0xe2, 0x0e, 0xbe, 0x0c, 0xfc, 0xcb, 0xbd,
  0xea, 0x94, 0x54, 0x3e, 0xf4, 0xa8, 0xd6, 0xbd, 0xfe, 0x64, 0x8b, 0xbd,
  0x26, 0x1d, 0x57, 0xbe, 0xc9, 0xe8, 0x38, 0xbe, 0x58, 0xe4, 0x68, 0x3e,
  0x9c, 0xd5, 0x4d, 0xbe, 0x30, 0x72, 0x95, 0x3d, 0xdc, 0x55, 0x50, 0xbe,
  0xac, 0x5e, 0x1f, 0xbd, 0xf0, 0x9e, 0x02, 0x3c, 0x5c, 0xab, 0x28, 0xbd,
  0xba, 0x8c, 0xdd, 0xbd, 0x94, 0xbe, 0x22, 0xbe, 0xa7, 0x48, 0x45, 0xbe,
  0xc6, 0x04, 0x20, 0x3e, 0x88, 0xd2, 0xc4, 0xbd, 0xe4, 0x49, 0xf6, 0x3d,
  0x88, 0xbe, 0x5b, 0x3d, 0xd4, 0x07, 0x46, 0x3e, 0x00, 0xb0, 0x1d, 0x3d,
  0x86, 0x23, 0x0c, 0xbe, 0xe8, 0xbf, 0x22, 0x3e, 0xe2, 0x5e, 0x6e, 0xbe,
  0x1c, 0x77, 0xad, 0xbd, 0x4c, 0xc0, 0x4f, 0xbe, 0x32, 0x3e, 0xce, 0xbd,
  0x0d, 0xa6, 0x53, 0xbe, 0x58, 0x67, 0x96, 0xbc, 0x58, 0xb3, 0x8f, 0xbd,
  0xb4, 0x55, 0x43, 0x3e, 0xf7, 0x93, 0x5b, 0xbe, 0xfc, 0x35, 0x36, 0x3e,
  0xa0, 0x3e, 0xf4, 0x3c, 0xe2, 0xc1, 0x09, 0xbe, 0x2a, 0xcd, 0x12, 0x3e,
  0x92, 0xef, 0x92, 0xbd, 0x61, 0x33, 0x56, 0xbe, 0x60, 0xff, 0xc4, 0x3b,
  0xc0, 0x41, 0x40, 0xbe, 0xa8, 0xd3, 0x80, 0xbc, 0x24, 0x58, 0x97, 0x3d,
  0xa4, 0xc0, 0xbe, 0x3d, 0x26, 0x18, 0x9e, 0xbd, 0x80, 0x4e, 0xbf, 0xba,
  0x10, 0xd4, 0xb3, 0x3d, 0xa5, 0x6a, 0x53, 0xbe, 0x00, 0xaf, 0x29, 0xbe,
  0x10, 0x2a, 0xf3, 0x3d, 0x54, 0x5b, 0x1c, 0xbd, 0x60, 0x4e, 0x6a, 0x3e,
  0xe0, 0x9b, 0xa4, 0xbb, 0x3d, 0xcb, 0x15, 0xbe, 0xf4, 0x2d, 0xfa, 0x3d,
  0x50, 0x2e, 0x90, 0xbd, 0xfc, 0x80, 0x3b, 0x3e, 0x60, 0x8e, 0x31, 0x3e,
  0x69, 0x49, 0x0e, 0x3f, 0xb5, 0x24, 0x36, 0xbc, 0x96, 0x5d, 0xb7, 0xbd,
  0x4c, 0x1d, 0xa1, 0x3e, 0x3c, 0x0d, 0x6c, 0x3e, 0xa7, 0x1e, 0xcb, 0x3d,
  0x53, 0x6d, 0x09, 0x3f, 0x86, 0xe9, 0x15, 0x3e, 0xa1, 0x6e, 0xb8, 0xbc,
  0x9d, 0xae, 0x4a, 0x3e, 0x55, 0xa0, 0x1f, 0xbe, 0x61, 0x2b, 0x6b, 0x3d,
  0x58, 0xbd, 0x88, 0x3e, 0x3d, 0x29, 0x8e, 0xbd, 0x64, 0x08, 0x0b, 0xbe,
  0x20, 0xf4, 0xf6, 0x3e, 0x64, 0xed, 0xa9, 0x3b, 0x81, 0x62, 0x58, 0x3d,
  0x3c, 0xa1, 0x83, 0x3e, 0xa0, 0x7b, 0x47, 0x3e, 0x30, 0xf8, 0xa5, 0xbe,
  0x10, 0x0f, 0x95, 0x3e, 0xfd, 0x20, 0x60, 0x3e, 0x47, 0x18, 0x81, 0x3c,
  0x50, 0x13, 0xb0, 0x3d, 0x83, 0x74, 0xe0, 0xbd, 0x4a, 0x48, 0x95, 0xbe,
  0x6d, 0xe6, 0x92, 0x3e, 0x8e, 0xe2, 0x9f, 0x3d, 0x84, 0x68, 0x06, 0xbe,
  0x16, 0x02, 0x48, 0x3d, 0x0d, 0xf9, 0xa1, 0xbd, 0xa2, 0x0d, 0x5c, 0xbe,
  0x59, 0x4d, 0x09, 0x3e, 0x2d, 0x2a, 0xab, 0x3c, 0x2e, 0xb8, 0x91, 0xbe,
  0xdc, 0xde, 0x37, 0x3e, 0xa7, 0x71, 0x52, 0x3d, 0x77, 0xe1, 0x7c, 0xbd,
  0x18, 0xfe, 0xe1, 0x3d, 0xba, 0x91, 0x2d, 0xbd, 0x07, 0x37, 0x6e, 0x3d,
  0x3e, 0x8b, 0x77, 0x3e, 0x94, 0x37, 0xa6, 0xbc, 0x5d, 0xe2, 0x90, 0x3c,
  0x16, 0x5a, 0xb4, 0x3e, 0xc7, 0x0e, 0xba, 0x3d, 0xab, 0xf6, 0xc4, 0xbd,
  0xc0, 0xf0, 0x57, 0x3d, 0xfd, 0xe7, 0x5a, 0x3e, 0x5e, 0x97, 0xad, 0xbe,
  0x5c, 0x77, 0x4b, 0x3e, 0xa8, 0xb7, 0xb1, 0x3d, 0xde, 0x7d, 0x1b, 0xbd,
  0x51, 0xc0, 0x15, 0x3e, 0xce, 0xed, 0x58, 0x3d, 0x32, 0x05, 0x90, 0xbd,
  0xbc, 0xf8, 0x02, 0x3c, 0x79, 0x6b, 0xb8, 0x3c, 0x94, 0x24, 0xc1, 0xbc,
  0x3f, 0x5f, 0xe1, 0xbe, 0xb4, 0x05, 0x5f, 0xbe, 0xc6, 0x3a, 0xc2, 0x3e,
  0xbb, 0xc8, 0x15, 0xbe, 0x2a, 0x15, 0x1a, 0x3e, 0x30, 0xbe, 0xc7, 0x3e,
  0xd8, 0x24, 0x5e, 0xbe, 0xfe, 0x46, 0xa1, 0xbd, 0x85, 0xb5, 0x3e, 0x3e,
  0xe4, 0x4b, 0xe3, 0xbe, 0x87, 0x9d, 0x3b, 0x3e, 0xb0, 0x01, 0x26, 0x3e,
  0x6d, 0xfc, 0xd9, 0xbe, 0x12, 0x41, 0x8f, 0xbd, 0x55, 0xcc, 0xa9, 0x3e,
  0xa9, 0x62, 0x88, 0xbe, 0x81, 0x8f, 0x0b, 0xbe, 0x35, 0xe0, 0xb4, 0x3e,
  0x93, 0x48, 0x57, 0xbe, 0x76, 0x37, 0xba, 0x3d, 0xf1, 0x8a, 0xd1, 0x3e,
  0x37, 0x67, 0xdc, 0xbe, 0xd3, 0xeb, 0xdf, 0x3d, 0x06, 0x98, 0x1f, 0x3e,
  0x46, 0xa1, 0xd3, 0xbe, 0x94, 0x7a, 0xd4, 0xbd, 0x21, 0x51, 0x81, 0x3e,
  0x10, 0xcf, 0x43, 0xbd, 0x89, 0xad, 0x2d, 0x3d, 0x90, 0xb6, 0x07, 0xbe,
  0xe2, 0x0e, 0x47, 0x3e, 0xb2, 0x6e, 0xe7, 0x3d, 0x60, 0xe0, 0xaa, 0xbd,
  0xde, 0xd6, 0x6b, 0xbe, 0x5f, 0xc5, 0x28, 0x3e, 0xf7, 0x87, 0xbe, 0xbd,
  0x2c, 0xaa, 0x8d, 0xbe, 0xc3, 0xf3, 0x58, 0x3e, 0xc9, 0xf5, 0x19, 0x3e,
  0x73, 0x2e, 0x2a, 0xbd, 0x3e, 0xb4, 0xef, 0x3d, 0xd3, 0xd3, 0x81, 0x3e,
  0xa6, 0x6f, 0xf7, 0xbd, 0xfa, 0x79, 0xf9, 0x3d, 0x37, 0x1a, 0xe3, 0x3d,
  0x30, 0x67, 0x6c, 0xbe, 0xa3, 0x18, 0x3a, 0xbd, 0xe3, 0x94, 0xe2, 0x3c,
  0x4f, 0x41, 0x48, 0xbe, 0x44, 0xbd, 0x0b, 0xbe, 0xe6, 0x10, 0x00, 0x3e,
  0xa1, 0xda, 0x1a, 0x3e, 0xc2, 0x39, 0x0f, 0xbe, 0x1f, 0x92, 0x29, 0x3e,
  0xe0, 0x2f, 0x1e, 0x3e, 0xd2, 0xa3, 0xa8, 0x3d, 0xf5, 0x1a, 0x7e, 0x3d,
  0x08, 0x04, 0x51, 0xbd, 0x84, 0xaa, 0xe2, 0xbd, 0xef, 0x37, 0x55, 0x3e,
  0x56, 0xdf, 0xfb, 0x3d, 0xc3, 0xfe, 0x8c, 0x3d, 0xa5, 0x54, 0x78, 0xbd,
  0xe8, 0x04, 0xdd, 0x3d, 0xd4, 0x53, 0xcf, 0x3e, 0xfb, 0x41, 0x84, 0x3e,
  0xe7, 0xbe, 0x53, 0x3e, 0x05, 0x7b, 0xf8, 0x3c, 0x2f, 0xde, 0x82, 0xbd,
  0x96, 0x33, 0xba, 0x3b, 0xe8, 0x10, 0xc1, 0x3e, 0xfa, 0x08, 0x51, 0x3e,
  0xce, 0x31, 0x25, 0x3d, 0x7f, 0x64, 0x72, 0x3e, 0x42, 0xb6, 0xca, 0x3d,
  0xed, 0x8c, 0xb0, 0x3e, 0x08, 0xde, 0xb3, 0x3e, 0xc5, 0x72, 0xd8, 0xbd,
  0xf5, 0x56, 0x29, 0x3e, 0x71, 0x99, 0x26, 0x3e, 0xd2, 0xbd, 0xb0, 0x3d,
  0x21, 0xdd, 0x87, 0x3e, 0xbe, 0xa0, 0xc1, 0x3e, 0xc7, 0x6b, 0xd4, 0xbc,
  0xfa, 0x53, 0x9a, 0x3e, 0x9e, 0x9d, 0x90, 0x3e, 0x97, 0x75, 0xa0, 0xbd,
  0x2c, 0xf5, 0x9d, 0x3e, 0x36, 0xc6, 0x31, 0x3e, 0x2e, 0x5f, 0x2b, 0xbe,
  0xa6, 0xb2, 0xa6, 0x3e, 0x0d, 0x1d, 0x77, 0x3d, 0x31, 0xb5, 0xec, 0x3d,
  0xc7, 0xd7, 0xf5, 0x3c, 0xf5, 0xcc, 0x36, 0x3d, 0xc6, 0x14, 0xc2, 0x3d,
  0xa2, 0x7c, 0x0b, 0x3e, 0xc3, 0xe1, 0x9f, 0x3e, 0x8d, 0xd6, 0xae, 0x3c,
  0x1d, 0xee, 0x33, 0x3e, 0xf5, 0x3b, 0x4c, 0x3e, 0x27, 0x99, 0xa0, 0x3d,
  0x29, 0xa9, 0x71, 0x3d, 0x19, 0xc6, 0xba, 0x3e, 0xf7, 0xe5, 0xeb, 0xbd,
  0xcd, 0xf3, 0xac, 0xbd, 0xdf, 0x60, 0x7b, 0x3e, 0xdc, 0xce, 0xf7, 0x3d,
  0x40, 0xe4, 0xbd, 0x3e, 0x1d, 0xbe, 0x35, 0x3e, 0x91, 0xa3, 0x76, 0xbe,
  0xb2, 0x2b, 0x81, 0x3e, 0x55, 0x2f, 0x09, 0x3d, 0x0d, 0xed, 0x35, 0x3e,
  0xf9, 0x0f, 0x8b, 0x3d, 0xc9, 0xc8, 0x4a, 0xbd, 0x39, 0xc0, 0x24, 0x3e,
  0x2c, 0x2c, 0x18, 0x3d, 0x3f, 0x4a, 0xcb, 0x3e, 0x1b, 0x71, 0x2c, 0x3d,
  0x84, 0x50, 0x17, 0xbf, 0xfe, 0xfa, 0x64, 0x3e, 0x4a, 0xd9, 0xd0, 0x3e,
  0xc5, 0xa6, 0x33, 0xbe, 0xb9, 0x53, 0x81, 0x3e, 0x28, 0x94, 0x91, 0x3e,
  0x85, 0xcf, 0x05, 0xbf, 0x2a, 0x76, 0x4f, 0x3e, 0xc7, 0x5d, 0x11, 0x3e,
  0x15, 0x05, 0x05, 0xbf, 0xd2, 0x39, 0x3d, 0x3e, 0x88, 0x0d, 0x43, 0x3e,
  0x4a, 0x33, 0x76, 0xbe, 0x3b, 0xfa, 0xd1, 0x3c, 0x88, 0xf8, 0xaa, 0x3e,
  0xf3, 0xf5, 0x39, 0xbe, 0xb9, 0xdb, 0x8e, 0x3e, 0xb6, 0xc1, 0x56, 0x3c,
  0x35, 0x3f, 0xf2, 0xbe, 0xae, 0x6c, 0x8e, 0x3e, 0x96, 0xfc, 0x2b, 0x3e,
  0x6a, 0xc8, 0x5c, 0xbe, 0x18, 0x39, 0x1a, 0x3d, 0x68, 0xd0, 0x98, 0x3e,
  0xb2, 0x76, 0xfd, 0xbe, 0x3e, 0x56, 0xc6, 0xbd, 0x72, 0x7b, 0xdd, 0xbc,
  0x06, 0xb1, 0x5a, 0xbc, 0x22, 0x55, 0xb6, 0x3d, 0xbc, 0x7b, 0x07, 0xbb,
  0xba, 0x89, 0xa7, 0x3d, 0xb1, 0xb8, 0x6d, 0x3e, 0xf7, 0xec, 0x7a, 0x3e,
  0xb2, 0x91, 0x30, 0xbd, 0xa5, 0x20, 0xa5, 0x3d, 0x09, 0xbc, 0x93, 0x3d,
  0x86, 0x8f, 0xa7, 0xbd, 0x16, 0x68, 0x10, 0xbe, 0xf8, 0xed, 0xb0, 0x3e,
  0x66, 0x73, 0xcf, 0x3a, 0x15, 0x2e, 0x2e, 0x3e, 0x46, 0x62, 0x82, 0x3e,
  0xe5, 0xf5, 0x1c, 0xbe, 0x1e, 0x5a, 0x95, 0x3e, 0xcf, 0x18, 0xa6, 0xbc,
  0xdf, 0x0c, 0x03, 0x3e, 0x23, 0xe9, 0xf0, 0x3b, 0x0b, 0x22, 0x02, 0x3d,
  0x76, 0x3f, 0x7e, 0x3d, 0x0f, 0xe6, 0x6e, 0x3e, 0x43, 0xe4, 0x65, 0x3e,
  0x46, 0x6b, 0xb5, 0xbd, 0x15, 0x7c, 0x3a, 0xbd, 0xb6, 0xcd, 0xb5, 0x3c,
  0xf5, 0xe7, 0x0d, 0x3d, 0x92, 0x2f, 0xbf, 0xbd, 0x2c, 0x24, 0x43, 0x3b,
  0x6e, 0x4c, 0xb5, 0xbd, 0x97, 0x9f, 0xbb, 0xbc, 0xf1, 0xdd, 0x38, 0x3e,
  0x29, 0xed, 0xf0, 0xbe, 0x31, 0xa5, 0x02, 0xbe, 0x70, 0x36, 0xcc, 0x3e,
  0x71, 0x01, 0x7d, 0xbd, 0x76, 0x4d, 0x34, 0x3e, 0xd2, 0x86, 0x3c, 0x3e,
  0x4d, 0x24, 0xa8, 0xbe, 0xf2, 0x71, 0x79, 0x3e, 0xdf, 0xb0, 0xb8, 0x3e,
  0xf8, 0x04, 0xe7, 0xbe, 0xfc, 0x50, 0x2c, 0x3e, 0x58, 0x7a, 0x28, 0x3e,
  0x63, 0xf1, 0x02, 0xbe, 0xc1, 0x4b, 0x00, 0x3e, 0x37, 0x18, 0x34, 0xbc,
  0xd0, 0x3e, 0x8d, 0xbe, 0x9a, 0x20, 0x11, 0xbd, 0xd8, 0x1e, 0xe1, 0x3d,
  0x31, 0x8c, 0xc0, 0xbc, 0xcd, 0x63, 0x7f, 0x3e, 0x24, 0x7b, 0x6d, 0x3d,
  0x25, 0x62, 0x6f, 0xbe, 0x59, 0xb9, 0x9b, 0x3d, 0xbf, 0x79, 0x75, 0x3e,
  0x2a, 0xbf, 0x97, 0xbd, 0x6f, 0xb6, 0x96, 0xbd, 0xad, 0x69, 0x3f, 0x3e,
  0xa0, 0x84, 0x96, 0xbe, 0x68, 0x26, 0x3f, 0xbe, 0xf6, 0xca, 0x28, 0x3e,
  0x9c, 0x2f, 0xbf, 0xbd, 0xc3, 0x54, 0x59, 0x3e, 0xdc, 0xce, 0xca, 0x3d,
  0x3c, 0xda, 0x3b, 0xbe, 0x0d, 0x6c, 0x4e, 0xbd, 0x41, 0x71, 0x8d, 0x3e,
  0x1a, 0xd9, 0x59, 0x3e, 0x8a, 0x7c, 0x50, 0xbc, 0x31, 0xf3, 0x06, 0x3e,
  0x23, 0xd1, 0x51, 0xbd, 0x4e, 0xf7, 0xa6, 0x3d, 0x4c, 0x97, 0xb3, 0x3c,
  0x51, 0xae, 0x0e, 0xbe, 0x5a, 0x45, 0x85, 0x3e, 0x05, 0xeb, 0x95, 0x3e,
  0x04, 0x05, 0xd9, 0x3d, 0xfa, 0xdd, 0x1b, 0x3e, 0x4a, 0x66, 0x90, 0xbd,
  0x72, 0xcc, 0xb5, 0xbd, 0xa6, 0x5d, 0x14, 0xbd, 0xbf, 0x2a, 0x54, 0x3e,
  0xa3, 0x4d, 0xf8, 0xbd, 0xd5, 0x73, 0x84, 0x3d, 0xe1, 0xf1, 0x39, 0x3e,
  0x37, 0xb8, 0x25, 0xbe, 0x1a, 0xe6, 0x0f, 0xbe, 0x4c, 0xcf, 0xaa, 0xbd,
  0x1f, 0x67, 0x4c, 0x3e, 0x7e, 0x75, 0xdc, 0xbd, 0xc6, 0x07, 0x03, 0xbe,
  0xca, 0x21, 0x55, 0xbe, 0x99, 0x52, 0xfb, 0x3d, 0xe4, 0xd5, 0x30, 0xbe,
  0xb1, 0x69, 0x29, 0xbe, 0xc8, 0xff, 0x2d, 0x3d, 0x1d, 0x27, 0x2b, 0xbe,
  0xd4, 0xdb, 0x05, 0xbe, 0x2c, 0xb4, 0x93, 0xbc, 0x38, 0xdb, 0x03, 0x3d,
  0x1d, 0xe0, 0xe4, 0xbd, 0xd4, 0x25, 0x4a, 0x3e, 0x12, 0x83, 0x60, 0xbd,
  0x72, 0x36, 0xd0, 0xbd, 0x29, 0x2b, 0xae, 0x3d, 0x7b, 0x58, 0xb2, 0xbd,
  0x8f, 0x00, 0x81, 0x3c, 0xeb, 0x7d, 0xf1, 0xbd, 0x38, 0x4d, 0xa2, 0xbe,
  0x7c, 0x87, 0x8d, 0xbe, 0x43, 0xa9, 0x05, 0xbe, 0xd4, 0xde, 0x07, 0x3d,
  0x31, 0x7b, 0x27, 0xbe, 0xf3, 0x40, 0xb9, 0x3d, 0x53, 0x1d, 0x8a, 0xbe,
  0x13, 0xd3, 0x9c, 0x3d, 0xc6, 0x70, 0x19, 0x3e, 0xb9, 0x0d, 0x41, 0xbe,
  0xeb, 0xfe, 0x9e, 0xbd, 0xab, 0x23, 0x40, 0x3e, 0x0a, 0x21, 0xfa, 0xbd,
  0x5b, 0x94, 0x57, 0xbd, 0x85, 0x63, 0xb4, 0xbd, 0x29, 0x7c, 0x83, 0x3e,
  0x08, 0x2c, 0xc3, 0xbd, 0xab, 0x87, 0x50, 0xbb, 0x34, 0xd6, 0x14, 0xbe,
  0xd6, 0x57, 0x21, 0xbe, 0xf9, 0x04, 0xb0, 0xbd, 0x41, 0xf5, 0x0d, 0x3e,
  0xd5, 0xce, 0xb9, 0x3d, 0xf4, 0x63, 0x3f, 0x3e, 0x46, 0x20, 0x7a, 0x3e,
  0xfa, 0xb2, 0x2f, 0x3e, 0x4c, 0xae, 0x24, 0x3c, 0xc2, 0xa4, 0x99, 0xbd,
  0x1a, 0x8b, 0xba, 0x3d, 0xcf, 0xdf, 0x22, 0x3d, 0x7f, 0xcc, 0xbc, 0x3d,
  0xbb, 0xa1, 0x68, 0xbb, 0x95, 0x83, 0x33, 0x3e, 0xdc, 0x9c, 0xa9, 0x3d,
  0xa6, 0xfa, 0x72, 0xbe, 0x73, 0xb1, 0x71, 0x3e, 0x39, 0x56, 0xb9, 0x3d,
  0xa7, 0x91, 0x3c, 0xbc, 0x35, 0x6c, 0x02, 0xbe, 0x67, 0xf2, 0xce, 0xbd,
  0x5a, 0x15, 0x69, 0x3e, 0x99, 0x74, 0x1b, 0x3d, 0x99, 0xb8, 0x02, 0x3e,
  0x58, 0x2f, 0x8f, 0x3e, 0xc9, 0xb5, 0x8e, 0x3d, 0x87, 0x9a, 0x1f, 0x3e,
  0xc8, 0x6b, 0x7e, 0x3e, 0x7b, 0x4e, 0x05, 0xbd, 0x01, 0x63, 0xc2, 0x3d,
  0xae, 0x82, 0x03, 0x3e, 0x34, 0x37, 0x31, 0x3e, 0x48, 0x22, 0x18, 0x3e,
  0x3d, 0x6c, 0x17, 0x3e, 0x6e, 0xea, 0x3c, 0xbe, 0x2d, 0x18, 0x80, 0x3e,
  0xd8, 0x59, 0x9f, 0x3e, 0x17, 0xfb, 0x72, 0x3e, 0xae, 0x41, 0xe7, 0x3a,
  0x0b, 0x66, 0x64, 0x3e, 0x6d, 0xb1, 0x2f, 0xbe, 0xf6, 0xe6, 0xc1, 0x39,
  0xc3, 0x3b, 0xe7, 0xbd, 0x5b, 0x9a, 0x9a, 0x3d, 0x9b, 0x34, 0xba, 0x3d,
  0x83, 0xab, 0x95, 0xbd, 0x79, 0xef, 0x4b, 0x3e, 0x86, 0x9c, 0x1d, 0x3e,
  0xd4, 0x46, 0x2f, 0x3e, 0x06, 0xfd, 0x7d, 0x3d, 0x54, 0x67, 0x9c, 0x3e,
  0xad, 0xea, 0x5f, 0xbe, 0x43, 0x0b, 0xd0, 0xbb, 0xf0, 0xe6, 0x62, 0x3e,
  0x03, 0x8c, 0xdd, 0xbd, 0x4b, 0x78, 0x3d, 0x3e, 0xb3, 0x2f, 0x96, 0xbd,
  0xbd, 0x02, 0xd9, 0xbc, 0x53, 0x79, 0xb3, 0xbd, 0x28, 0x00, 0xfd, 0xbd,
  0xe7, 0x37, 0x8d, 0xbe, 0xee, 0x45, 0x8a, 0xbc, 0x77, 0x3c, 0x55, 0x3e,
  0x2a, 0x27, 0x9d, 0xba, 0x0e, 0x64, 0xa4, 0xbd, 0x86, 0x73, 0xd4, 0x3d,
  0x53, 0xd1, 0x42, 0x3e, 0xa8, 0xa8, 0x23, 0x3d, 0xf9, 0xe0, 0xfc, 0xbd,
  0xe8, 0x91, 0x01, 0x3e, 0x94, 0x07, 0x39, 0xbe, 0xbc, 0x42, 0x84, 0x3d,
  0x07, 0x69, 0x78, 0xbe, 0xb3, 0x31, 0x08, 0xbe, 0x0b, 0xaa, 0xb4, 0x3c,
  0x42, 0xba, 0x9a, 0x3d, 0xaa, 0x9e, 0x82, 0x3e, 0x56, 0xe0, 0xb6, 0x3d,
  0xe6, 0x6e, 0x79, 0xbe, 0x46, 0x61, 0x14, 0xbe, 0x79, 0xfa, 0x95, 0x3d,
  0xfa, 0x38, 0x58, 0xbe, 0xfa, 0x35, 0x2f, 0xbe, 0xb8, 0xb1, 0x5d, 0x3e,
  0x72, 0xf1, 0xff, 0xff, 0x04, 0x00, 0x00, 0x00, 0xc8, 0x00, 0x00, 0x00,
  0xd3, 0xb7, 0x37, 0xbc, 0xee, 0xe0, 0x37, 0xbf, 0x00, 0x00, 0x00, 0x00,
  0x44, 0x18, 0xeb, 0x3e, 0x00, 0x00, 0x00, 0x00, 0x60, 0x8e, 0xea, 0xbc,
  0xa3, 0x5e, 0x17, 0xbf, 0x39, 0xef, 0x27, 0x3f, 0x75, 0x4d, 0x14, 0x3e,
  0xcf, 0x15, 0x2f, 0x3c, 0x2a, 0x60, 0x1e, 0xbf, 0x53, 0x31, 0x29, 0xbf,
  0x00, 0x00, 0x00, 0x00, 0x00, 0x00, 0x00, 0x00, 0x4e, 0x06, 0x4f, 0xbb,
  0xe3, 0xf2, 0x79, 0xbd, 0x20, 0x61, 0x0f, 0xbf, 0xb4, 0x12, 0x2a, 0xbf,
  0x19, 0x36, 0x48, 0xbc, 0x00, 0x00, 0x00, 0x00, 0xcf, 0x8c, 0x3d, 0xbf,
  0x57, 0xaa, 0x23, 0x3f, 0x25, 0x6f, 0x4a, 0x3e, 0xe2, 0xd3, 0x16, 0xbf,
  0x1b, 0x3b, 0x80, 0x3e, 0x4b, 0x3d, 0x2e, 0xbf, 0xd3, 0xb6, 0xa0, 0x3e,
  0x7c, 0xcc, 0x8c, 0xbe, 0x18, 0x16, 0x8c, 0xbc, 0xd4, 0xea, 0x38, 0x3e,
  0xc1, 0x80, 0x09, 0x3f, 0xba, 0x76, 0x63, 0x3e, 0xa1, 0x4f, 0x32, 0x3f,
  0xdc, 0x61, 0x22, 0x3f, 0x3b, 0x09, 0x0d, 0x3f, 0x35, 0xb1, 0x6c, 0x3e,
  0x00, 0x00, 0x00, 0x00, 0x00, 0x00, 0x00, 0x00, 0x7c, 0x49, 0x3c, 0xbf,
  0xd0, 0x57, 0xb8, 0x38, 0xd3, 0x6d, 0x37, 0xbe, 0x39, 0x0c, 0x3f, 0x3e,
  0x00, 0x00, 0x00, 0x00, 0x9a, 0x29, 0xec, 0xbe, 0xba, 0x4e, 0x03, 0x3f,
  0x49, 0x73, 0x1f, 0xbe, 0xc3, 0x35, 0x30, 0x3f, 0x21, 0x4b, 0x12, 0x3f,
  0xc2, 0xf2, 0x38, 0x3f, 0xdc, 0xf8, 0x17, 0xbf, 0x46, 0xf2, 0xff, 0xff,
  0x04, 0x00, 0x00, 0x00, 0x3c, 0x00, 0x00, 0x00, 0x72, 0x72, 0x30, 0xbe,
  0x5b, 0x07, 0x2a, 0x3f, 0xd0, 0x87, 0x92, 0xbd, 0x2b, 0x90, 0xe3, 0xbd,
  0xb2, 0x73, 0x0f, 0xbf, 0x00, 0x00, 0x00, 0x00, 0x6a, 0x28, 0x8b, 0xbe,
  0x52, 0xe0, 0x5d, 0x3e, 0xf9, 0x13, 0x36, 0x3e, 0x7d, 0x41, 0xe1, 0xbe,
  0x78, 0x06, 0xf2, 0xbc, 0x94, 0x7d, 0xc8, 0x3e, 0x19, 0xb1, 0x2d, 0xbd,
  0x00, 0x00, 0x00, 0x00, 0x12, 0xe1, 0x58, 0x3f, 0x8e, 0xf2, 0xff, 0xff,
  0x04, 0x00, 0x00, 0x00, 0x10, 0x00, 0x00, 0x00, 0x8d, 0x85, 0xa0, 0xbe,
  0xbe, 0x30, 0x27, 0xbf, 0xe8, 0xff, 0x10, 0x3f, 0xa2, 0x5c, 0x3c, 0x3d,
  0xaa, 0xf2, 0xff, 0xff, 0x04, 0x00, 0x00, 0x00, 0xb8, 0x0b, 0x00, 0x00,
  0x8c, 0x7d, 0x4b, 0x3d, 0x33, 0xfb, 0x50, 0x3f, 0x10, 0x6f, 0xc9, 0x3c,
  0x08, 0x8a, 0xd1, 0xbe, 0xe0, 0x2a, 0xe3, 0xbd, 0xfb, 0xeb, 0x6f, 0x3e,
  0x1d, 0x40, 0x08, 0x3f, 0xe7, 0x69, 0x60, 0xbe, 0x6b, 0x0f, 0x1f, 0x3f,
  0x0f, 0x95, 0x9d, 0x3d, 0xb5, 0x7c, 0x20, 0x3f, 0x57, 0xe6, 0xe0, 0x3e,
  0xd0, 0xc9, 0x2e, 0x3e, 0x19, 0xad, 0x2b, 0xbe, 0x64, 0x7c, 0x84, 0xbb,
  0xc0, 0x3f, 0xc0, 0x3c, 0x00, 0xae, 0x55, 0x3f, 0x0c, 0xa0, 0x22, 0x3f,
  0x57, 0x91, 0x96, 0x3e, 0x1c, 0x2b, 0xaf, 0xbd, 0x93, 0x2d, 0x0f, 0x3f,
  0xbd, 0x11, 0x99, 0xbe, 0x32, 0x9c, 0xdc, 0x3e, 0x5f, 0x8c, 0x65, 0x3f,
  0xdf, 0xde, 0xc9, 0xbd, 0xb9, 0x60, 0xa2, 0x3e, 0x06, 0xf9, 0x48, 0xbe,
  0xae, 0x35, 0xc8, 0x3e, 0x24, 0x32, 0x86, 0x3e, 0xe1, 0xf6, 0x13, 0x3f,
  0x26, 0x4b, 0xc8, 0xbe, 0xd5, 0x9a, 0xc6, 0x3e, 0xc4, 0xa3, 0x6c, 0x3e,
  0xde, 0x94, 0x93, 0xbe, 0x9e, 0x30, 0xeb, 0xbe, 0x4c, 0x1d, 0xc7, 0xbe,
  0x3c, 0xcb, 0x8c, 0x3e, 0xea, 0x98, 0x24, 0xbe, 0x68, 0xbc, 0x29, 0x3f,
  0xce, 0xea, 0x8f, 0xbe, 0xc9, 0xad, 0xca, 0x3e, 0x43, 0x76, 0xbb, 0xbe,
  0xc6, 0x93, 0xed, 0xbd, 0x76, 0xed, 0xe9, 0x3e, 0xef, 0x20, 0x6b, 0xbe,
  0x5e, 0x8c, 0xe7, 0x3e, 0x00, 0xc1, 0x03, 0xbf, 0x9c, 0x02, 0x00, 0x3e,
  0x34, 0xe7, 0x23, 0x3e, 0x69, 0x80, 0xcf, 0x3e, 0x88, 0xa7, 0x62, 0xbd,
  0x89, 0xe0, 0x0d, 0xbf, 0x78, 0x49, 0xce, 0x3d, 0xb8, 0xd1, 0x51, 0x3f,
  0x28, 0x11, 0x3e, 0xbe, 0x59, 0x00, 0xd5, 0x3c, 0x03, 0x12, 0xc2, 0xbe,
  0x5c, 0xb6, 0x56, 0x3c, 0x94, 0xaf, 0x6c, 0x3e, 0x3d, 0x02, 0x9e, 0x3e,
  0x2d, 0xe3, 0xc2, 0xbe, 0xef, 0x1d, 0x03, 0xba, 0x50, 0x45, 0xa5, 0xbd,
  0xc6, 0x83, 0x89, 0xbe, 0x13, 0x8b, 0x87, 0x3e, 0x6a, 0x58, 0xe0, 0xbc,
  0x10, 0x7e, 0xc1, 0xbe, 0xff, 0xb4, 0x0d, 0xbf, 0x8c, 0x9a, 0x7f, 0xbe,
  0x5c, 0x14, 0x7c, 0xbe, 0x92, 0x2b, 0x3f, 0xbe, 0x04, 0xb8, 0x1b, 0x3e,
  0x73, 0x05, 0x83, 0x3f, 0x29, 0x35, 0xf9, 0xbe, 0x2c, 0x3e, 0x12, 0x3f,
  0x4a, 0x05, 0x14, 0xbe, 0x94, 0x9f, 0x3a, 0x3f, 0xd1, 0xc8, 0xd0, 0x3d,
  0x21, 0x13, 0x16, 0x3e, 0xf2, 0x74, 0x71, 0x3f, 0x32, 0x26, 0x35, 0xbe,
  0x9a, 0xd5, 0x6d, 0x3f, 0x90, 0xe8, 0xe6, 0x3e, 0xa0, 0x67, 0x33, 0x3c,
  0x5f, 0x9a, 0xb2, 0xbd, 0x63, 0x19, 0x57, 0x3f, 0x44, 0xc3, 0x2a, 0xbe,
  0xfa, 0x64, 0xd4, 0xbd, 0x9c, 0xb8, 0xf4, 0xbd, 0xa5, 0x52, 0x4b, 0x3e,
  0x2e, 0x3a, 0x75, 0xbe, 0x91, 0x10, 0x2e, 0x3e, 0x6f, 0xcf, 0x0a, 0xbe,
  0x33, 0x34, 0xa7, 0xbd, 0x0b, 0x31, 0xbf, 0xbe, 0x37, 0x1f, 0x27, 0xbe,
  0x96, 0x45, 0x2d, 0x3e, 0xc5, 0xad, 0x2e, 0x3e, 0x75, 0x17, 0x9f, 0x3e,
  0x18, 0x16, 0x09, 0xbf, 0xf6, 0x80, 0x28, 0xbe, 0xe6, 0xad, 0x9f, 0xbe,
  0xd2, 0x5f, 0xdf, 0xbd, 0xc7, 0x36, 0x78, 0x3d, 0x34, 0x33, 0x84, 0xbe,
  0x1a, 0x8b, 0xda, 0x3d, 0xfe, 0xb4, 0xaf, 0x3d, 0x19, 0x8d, 0xe1, 0x3c,
  0xe4, 0xfe, 0x8b, 0x3e, 0x42, 0x86, 0xb1, 0x3d, 0x55, 0xc5, 0xa5, 0xbd,
  0x7c, 0x6e, 0x3a, 0x3e, 0xe3, 0xa7, 0x98, 0xbe, 0x50, 0x9d, 0x62, 0x3e,
  0x60, 0xfb, 0x4e, 0x3c, 0x9f, 0x5e, 0xd0, 0x3d, 0xef, 0x6b, 0x2b, 0xbe,
  0x7e, 0xb8, 0x37, 0xbe, 0x63, 0x04, 0x92, 0x3e, 0xa8, 0x22, 0x5b, 0xbd,
  0x58, 0x3d, 0x9d, 0xbe, 0x68, 0x2b, 0x38, 0xbb, 0x9a, 0x74, 0x97, 0xbe,
  0x93, 0xd3, 0xba, 0xbd, 0xf4, 0xf8, 0xae, 0x3c, 0x49, 0x5f, 0xcd, 0x3c,
  0x33, 0xb2, 0x2c, 0x3e, 0xf9, 0x5f, 0xb0, 0x3d, 0xaf, 0xf0, 0x4d, 0x3c,
  0x35, 0x4d, 0xdf, 0x3d, 0x55, 0xaa, 0xee, 0xbd, 0x52, 0x8a, 0x3d, 0xbe,
  0x19, 0x6b, 0x70, 0x3e, 0xe8, 0x3a, 0x00, 0x3e, 0xbe, 0x10, 0x17, 0xbe,
  0xa9, 0x0f, 0xa0, 0xbe, 0x80, 0x36, 0xaa, 0x3d, 0x28, 0x3a, 0xa6, 0xbd,
  0x46, 0x06, 0x80, 0xbe, 0x3a, 0xb0, 0x90, 0xbe, 0xc0, 0x8b, 0x38, 0xbe,
  0x93, 0xe8, 0x63, 0x3d, 0x7c, 0x13, 0x5a, 0x3e, 0x13, 0xa5, 0xe3, 0x3d,
  0x78, 0xb9, 0x62, 0x3e, 0x41, 0x73, 0xae, 0xbe, 0xfb, 0xe6, 0xb1, 0xbd,
  0x2c, 0x7d, 0xb9, 0xbe, 0x0a, 0x6f, 0x70, 0xbe, 0xe7, 0x33, 0x75, 0x3d,
  0xca, 0x5a, 0xcc, 0xbd, 0x66, 0xca, 0xb8, 0x3c, 0x6e, 0x90, 0x42, 0xbe,
  0x06, 0xc5, 0xba, 0x3d, 0x47, 0x5f, 0x43, 0xbe, 0x06, 0x83, 0x12, 0x3b,
  0x36, 0x95, 0xc1, 0xbe, 0xea, 0xf1, 0xd0, 0x3e, 0x6a, 0xd2, 0xef, 0xbe,
  0x08, 0xff, 0x31, 0x3e, 0xc3, 0x2f, 0xbd, 0x3d, 0xc7, 0x63, 0xf4, 0xbc,
  0x87, 0x33, 0x21, 0xbe, 0x80, 0x6f, 0xec, 0xbb, 0xfe, 0xac, 0x5b, 0xbe,
  0xb1, 0x92, 0x94, 0xbe, 0x27, 0xa1, 0x15, 0xbf, 0xb1, 0xd0, 0x49, 0xbb,
  0xb9, 0x1f, 0x37, 0xbe, 0x60, 0x46, 0x04, 0x3d, 0x28, 0x89, 0x17, 0x3e,
  0xd4, 0xa0, 0x65, 0x3f, 0x99, 0x1d, 0xb1, 0xbe, 0x88, 0x21, 0x80, 0xbb,
  0x1b, 0x3e, 0xf9, 0xbe, 0xf0, 0x53, 0xb1, 0x3e, 0x36, 0xc5, 0xf8, 0x3d,
  0x0b, 0xc8, 0x62, 0x3e, 0x11, 0xb8, 0x89, 0xbe, 0x1b, 0xd5, 0x11, 0xbf,
  0x78, 0x0f, 0xef, 0x3e, 0xc5, 0xe2, 0xcc, 0xbe, 0x5f, 0xee, 0x94, 0xbe,
  0x83, 0xa7, 0xe3, 0x3e, 0x84, 0x32, 0x1a, 0x3f, 0x08, 0xbe, 0x5f, 0xbf,
  0xee, 0xad, 0x83, 0x3e, 0x30, 0x84, 0x81, 0x3e, 0xbe, 0xec, 0x61, 0xbd,
  0x63, 0xac, 0x21, 0x3e, 0xf8, 0x68, 0xb3, 0xbe, 0x2b, 0xf5, 0xea, 0x3e,
  0xb0, 0xb7, 0x63, 0x3e, 0x0c, 0xda, 0x91, 0x3e, 0xe0, 0x26, 0x35, 0x3f,
  0xbd, 0xa8, 0xcd, 0x3d, 0x9b, 0x7c, 0xfc, 0x3e, 0x75, 0x6c, 0x03, 0x3f,
  0x55, 0x10, 0xe2, 0xbd, 0xa3, 0xa3, 0xee, 0xbd, 0x74, 0x04, 0x0b, 0xbe,
  0xcd, 0xa1, 0x32, 0x3f, 0xba, 0x8a, 0x8f, 0x3e, 0x63, 0x90, 0x76, 0xbf,
  0x04, 0x99, 0x44, 0x3e, 0x7b, 0xfa, 0xdd, 0xbd, 0xab, 0x53, 0x27, 0x3f,
  0xd2, 0x4c, 0x5c, 0xbe, 0x73, 0x63, 0x3b, 0xbf, 0xc9, 0x70, 0x33, 0x3d,
  0x26, 0x74, 0xf9, 0x3e, 0x43, 0x13, 0xc3, 0x3e, 0x94, 0xb3, 0x14, 0x3e,
  0xb0, 0xe1, 0xf0, 0xbd, 0x9c, 0x5d, 0x85, 0xbe, 0x1e, 0x05, 0x68, 0x3e,
  0x67, 0x77, 0xea, 0x3e, 0x4c, 0xc1, 0xeb, 0x3e, 0x76, 0xb2, 0xd2, 0x3d,
  0xe0, 0x07, 0x8d, 0xbe, 0xf3, 0x03, 0xee, 0x3e, 0x4a, 0x5c, 0x5e, 0xbc,
  0xca, 0xf4, 0x2b, 0xbf, 0xe6, 0x41, 0x0e, 0x3f, 0x1f, 0x51, 0x01, 0xbf,
  0xd0, 0xd3, 0x28, 0x3c, 0xd7, 0xe2, 0x12, 0xbf, 0x78, 0x43, 0x28, 0x3f,
  0x98, 0x09, 0x71, 0x3d, 0xb9, 0x31, 0x50, 0xbf, 0xb7, 0x6f, 0x98, 0x3a,
  0x26, 0xaa, 0x7b, 0xbf, 0xd3, 0x65, 0x00, 0xbf, 0xab, 0x0a, 0x74, 0x3e,
  0xe0, 0x9e, 0xe2, 0xbd, 0x99, 0x5d, 0x7d, 0xbe, 0x3c, 0x92, 0x03, 0x3e,
  0xd9, 0x1e, 0x09, 0xbe, 0x66, 0xf5, 0xf7, 0x3e, 0xcf, 0xf9, 0x17, 0x3e,
  0x5c, 0x55, 0xdc, 0x3d, 0xb0, 0x49, 0x48, 0x3d, 0x80, 0xf3, 0x5d, 0x3e,
  0x16, 0xf4, 0x43, 0x3f, 0x94, 0x1a, 0x44, 0xbd, 0xaa, 0x22, 0x42, 0xbe,
  0xab, 0x6f, 0xf6, 0xbe, 0x2a, 0xdb, 0xac, 0x3e, 0xc2, 0x42, 0x3a, 0xbf,
  0x18, 0xba, 0xdc, 0x3e, 0x76, 0x4c, 0x28, 0x3e, 0xb8, 0xae, 0x44, 0xbe,
  0x20, 0x84, 0x29, 0x3e, 0xa8, 0x78, 0x8f, 0xbe, 0xd2, 0x86, 0x83, 0xbd,
  0xfc, 0x74, 0xf4, 0x3d, 0x80, 0x90, 0xf0, 0xbc, 0x55, 0x41, 0x83, 0xbe,
  0x78, 0xac, 0x83, 0xbe, 0x3c, 0x1d, 0x3e, 0xbe, 0x3b, 0xc6, 0x86, 0xbe,
  0xf1, 0xce, 0x8f, 0xbe, 0x90, 0x9b, 0xe3, 0xbc, 0x4b, 0x65, 0x8d, 0xbe,
  0xb8, 0x94, 0xae, 0xbd, 0xe2, 0xdd, 0xea, 0xbd, 0x6a, 0x16, 0x97, 0xbe,
  0x36, 0x90, 0xdb, 0xbd, 0x6d, 0x9e, 0x5a, 0xbe, 0x80, 0x4c, 0x72, 0xbb,
  0x26, 0xc9, 0x3a, 0x3e, 0xdb, 0xcc, 0x94, 0xbe, 0x44, 0x8b, 0x77, 0x3e,
  0x90, 0xb1, 0xb2, 0x3c, 0xb6, 0x54, 0x55, 0xbe, 0x40, 0xda, 0xfe, 0xbc,
  0x2e, 0x45, 0x12, 0x3e, 0x32, 0xcb, 0x46, 0xbe, 0x50, 0xe4, 0x6a, 0x3e,
  0x18, 0x93, 0x4b, 0xbd, 0xe4, 0xab, 0x3d, 0x3e, 0x2c, 0x98, 0x3c, 0x3e,
  0x75, 0xfb, 0x7a, 0xbe, 0x0e, 0x17, 0x0d, 0x3e, 0x0b, 0xef, 0x84, 0xbe,
  0xb8, 0xac, 0x62, 0x3e, 0x54, 0xba, 0x54, 0x3e, 0xd0, 0x6f, 0x82, 0xbc,
  0x24, 0x7e, 0xce, 0x3d, 0x24, 0x2e, 0xc7, 0x3d, 0x18, 0xc7, 0x93, 0xbe,
  0x26, 0xf1, 0x06, 0x3e, 0x52, 0xfc, 0x89, 0x3e, 0x68, 0x69, 0x80, 0x3d,
  0xa0, 0x03, 0x63, 0xbc, 0x18, 0x1e, 0x65, 0x3d, 0x00, 0x83, 0xd1, 0xbb,
  0x80, 0x1a, 0xe8, 0x3b, 0x3b, 0x66, 0x35, 0xbe, 0x32, 0x34, 0x89, 0x3e,
  0x55, 0xc8, 0x2c, 0x3e, 0x33, 0xfc, 0x25, 0xbd, 0x60, 0x5d, 0x89, 0xbc,
  0x1c, 0xe9, 0xc0, 0xbc, 0xc0, 0x53, 0x2b, 0x3e, 0x0e, 0x68, 0x94, 0xbe,
  0xe3, 0x98, 0x51, 0x3d, 0xd0, 0x89, 0xef, 0x3e, 0xf9, 0xe5, 0xab, 0xbe,
  0xdc, 0x84, 0x21, 0x3e, 0xdb, 0x3e, 0xa1, 0x3e, 0x38, 0x0e, 0xda, 0x3e,
  0xc9, 0x63, 0x22, 0xbe, 0x7a, 0x8a, 0xea, 0xbd, 0x6c, 0x1e, 0x5a, 0xbe,
  0x03, 0xba, 0x0c, 0x3e, 0x28, 0x10, 0x87, 0x3d, 0xec, 0x56, 0x16, 0x3e,
  0xc8, 0x1c, 0xcb, 0x3d, 0x4c, 0xf8, 0xaf, 0x3d, 0x84, 0x2e, 0x2d, 0x3e,
  0xfd, 0x47, 0x15, 0x3f, 0x79, 0x50, 0x46, 0xbf, 0xfa, 0x85, 0x4f, 0x3d,
  0x28, 0x4e, 0x02, 0xbf, 0x0d, 0xaf, 0xf5, 0x3d, 0x56, 0x2d, 0xf7, 0xbe,
  0x2b, 0xe5, 0x85, 0x3e, 0x60, 0xb7, 0x85, 0x3e, 0xd4, 0x05, 0x63, 0xbf,
  0xac, 0x9e, 0xc9, 0x3e, 0x8b, 0x59, 0x63, 0xbf, 0xc5, 0xa2, 0x00, 0x3e,
  0x4b, 0xf1, 0x1c, 0x3d, 0xde, 0xf2, 0x03, 0x3f, 0x7c, 0x20, 0x6e, 0xbe,
  0xa0, 0xac, 0x33, 0x3e, 0x1c, 0x50, 0x05, 0x3e, 0x5b, 0x96, 0xc5, 0x3e,
  0x56, 0xed, 0x08, 0xbe, 0x88, 0x8f, 0x85, 0xbc, 0xfb, 0x1d, 0xe8, 0x3e,
  0x78, 0x1c, 0xc5, 0x3d, 0x1a, 0x48, 0x09, 0x3e, 0x0d, 0x22, 0x40, 0x3e,
  0xde, 0xa9, 0x0e, 0x3d, 0x23, 0x02, 0x56, 0x3e, 0xeb, 0x16, 0xd7, 0x3e,
  0x35, 0xc5, 0xb0, 0xbe, 0xd0, 0x81, 0xba, 0x3e, 0x04, 0xb8, 0x15, 0x3e,
  0xaf, 0x3c, 0x7e, 0x3e, 0x8c, 0xe7, 0x6a, 0x3e, 0x95, 0x93, 0x39, 0xbe,
  0x5a, 0x59, 0x78, 0xbe, 0x70, 0x2f, 0x9b, 0xbc, 0xab, 0xd4, 0x8a, 0x3e,
  0x59, 0xa2, 0x00, 0x3f, 0xc2, 0x79, 0x72, 0xbd, 0x4b, 0x0b, 0x93, 0x3e,
  0x4f, 0x96, 0x13, 0x3f, 0xc3, 0x49, 0xfa, 0x3c, 0x20, 0x34, 0x76, 0x3d,
  0xc8, 0xb9, 0x6d, 0xbd, 0x9c, 0x92, 0x7e, 0x3e, 0xc3, 0x36, 0xd4, 0x3d,
  0xd5, 0x15, 0x0e, 0x3f, 0x99, 0x57, 0xc2, 0x3e, 0x62, 0x18, 0x9a, 0xbe,
  0x49, 0x7f, 0x7c, 0xbe, 0x9b, 0x87, 0xf6, 0xbd, 0x01, 0x7c, 0x49, 0x3e,
  0x57, 0xf3, 0x48, 0x3d, 0x52, 0x82, 0xa3, 0x3c, 0x3f, 0xc9, 0xcb, 0x3d,
  0x44, 0x14, 0x64, 0x3e, 0x1f, 0x2a, 0xab, 0xbe, 0xcb, 0xde, 0xb2, 0x3e,
  0xd2, 0x06, 0x3e, 0xbe, 0x28, 0x0d, 0x89, 0x3e, 0x82, 0x06, 0xeb, 0x3e,
  0x16, 0x5b, 0x31, 0x3c, 0x29, 0x81, 0x68, 0x3e, 0x47, 0xd6, 0x21, 0xbd,
  0x08, 0x37, 0x31, 0x3c, 0x17, 0x60, 0xc6, 0xbe, 0x34, 0xdb, 0x82, 0x3e,
  0x82, 0xbb, 0x26, 0x3e, 0xcd, 0x6f, 0x9d, 0x3e, 0x04, 0xca, 0x96, 0x3d,
  0xd8, 0x69, 0xd6, 0x3e, 0x65, 0x65, 0x96, 0xbe, 0xf8, 0xed, 0x01, 0xbd,
  0xa1, 0x18, 0xc5, 0x3e, 0xfe, 0xf8, 0xe4, 0x3d, 0xfb, 0xc2, 0x04, 0x3e,
  0x86, 0x7e, 0x4f, 0x3e, 0xaa, 0xf9, 0x1b, 0x3e, 0xde, 0xc2, 0xe0, 0xbc,
  0xa6, 0xfe, 0x14, 0x3f, 0x8c, 0x1c, 0xa3, 0xbd, 0x3d, 0x5c, 0x8e, 0xbf,
  0x42, 0x69, 0xce, 0xbd, 0xbf, 0x51, 0xc4, 0xbe, 0x80, 0x82, 0x9e, 0x3b,
  0x96, 0x9d, 0x19, 0x3e, 0x7c, 0xc0, 0x1f, 0xbf, 0x1b, 0x23, 0xab, 0x3e,
  0x2b, 0xf7, 0x1d, 0xbe, 0xef, 0x4d, 0x66, 0x3e, 0x0b, 0x1d, 0x34, 0xbf,
  0xa7, 0x96, 0x07, 0xbf, 0x08, 0x56, 0x2f, 0xbd, 0x8c, 0x1f, 0xc5, 0x3d,
  0x04, 0xef, 0x55, 0x3e, 0x0d, 0x39, 0xa6, 0xbd, 0x48, 0xee, 0x25, 0xbf,
  0x32, 0x4c, 0xca, 0xbe, 0x25, 0xd8, 0xd3, 0xbd, 0x30, 0xcd, 0x84, 0x3e,
  0x6d, 0x86, 0x39, 0xbf, 0x5f, 0x03, 0x0c, 0x3e, 0xc3, 0x08, 0x8d, 0x3e,
  0xc5, 0x9c, 0x9a, 0xbf, 0x2f, 0xb2, 0x4e, 0xbe, 0x67, 0x31, 0x16, 0xbf,
  0xc7, 0xee, 0x89, 0x3e, 0x73, 0x73, 0x87, 0xbe, 0x32, 0x79, 0x06, 0xbe,
  0x84, 0xa6, 0xc5, 0x3d, 0xce, 0x85, 0x8a, 0x3e, 0x6c, 0xba, 0x51, 0xbd,
  0x1a, 0xad, 0xa7, 0xbe, 0xb7, 0x52, 0x40, 0x3b, 0x58, 0x35, 0x80, 0x3e,
  0xd8, 0xe7, 0xb3, 0x3e, 0x00, 0xdf, 0x7e, 0x3c, 0x9a, 0x8a, 0xe1, 0xbd,
  0xa1, 0x2a, 0x1d, 0xbf, 0xc2, 0x2f, 0xac, 0xbd, 0xcd, 0x62, 0xd9, 0x3b,
  0x9a, 0x43, 0x34, 0x3f, 0x4a, 0x03, 0x92, 0x3e, 0xf7, 0xde, 0x87, 0xbf,
  0xa7, 0xdb, 0xe2, 0x3d, 0x86, 0x17, 0x08, 0xbf, 0xa2, 0x2f, 0xd0, 0x3e,
  0x04, 0x29, 0x1e, 0x3d, 0x0b, 0xee, 0x08, 0x3e, 0x14, 0xac, 0xa9, 0xbe,
  0xe7, 0x5e, 0x48, 0xbe, 0xc3, 0x72, 0x1a, 0xbc, 0xb0, 0x70, 0x26, 0x3e,
  0xa1, 0x61, 0x43, 0xbf, 0x1d, 0x13, 0x7d, 0xbe, 0x30, 0x63, 0x6e, 0x3d,
  0x99, 0x6e, 0x03, 0x3f, 0x53, 0xf1, 0xe5, 0xbe, 0xdb, 0x7c, 0x3f, 0x3e,
  0xff, 0x15, 0xc2, 0x3e, 0xb9, 0xe1, 0xe2, 0x3e, 0x15, 0x34, 0x82, 0x3e,
  0x20, 0x0f, 0xff, 0x3c, 0xac, 0x18, 0x6a, 0x3e, 0x6e, 0xec, 0xb3, 0x3b,
  0x25, 0x7e, 0x57, 0x3e, 0x82, 0x9d, 0x28, 0x3f, 0x43, 0xd5, 0xe3, 0x3d,
  0x7b, 0x73, 0xf0, 0x3c, 0x1a, 0xbc, 0x84, 0x3e, 0x6e, 0x87, 0xb2, 0x3e,
  0xa4, 0xb9, 0xa5, 0xbe, 0xbc, 0x1a, 0x3e, 0xbe, 0xf9, 0x9a, 0x8b, 0x3e,
  0x3b, 0x89, 0x31, 0xbf, 0x9b, 0xf5, 0x9c, 0x3e, 0x22, 0xcb, 0x1f, 0xbf,
  0x44, 0x38, 0xe6, 0x3e, 0x4b, 0x4e, 0x85, 0xbe, 0xb1, 0x82, 0x90, 0xbe,
  0x2e, 0x1b, 0xf4, 0xbe, 0x7a, 0x52, 0x9d, 0x3c, 0xc5, 0x18, 0xa8, 0xbe,
  0x5a, 0xda, 0x4b, 0xbe, 0xf7, 0x2e, 0x29, 0xbf, 0xaf, 0x8f, 0x48, 0x3e,
  0xc8, 0x20, 0x0d, 0xbe, 0xd0, 0xf1, 0xcf, 0xbc, 0x7a, 0x9a, 0x1a, 0x3d,
  0xc4, 0xa8, 0x96, 0x3e, 0x41, 0xe4, 0x20, 0x3f, 0x9c, 0x7e, 0x76, 0xbe,
  0xa2, 0xb3, 0x27, 0xbe, 0xea, 0x90, 0xe7, 0x3e, 0x09, 0xd2, 0xac, 0xbe,
  0xfc, 0x1b, 0x4b, 0x3e, 0x7e, 0xc9, 0xbb, 0xbe, 0xa3, 0xcb, 0x99, 0xbe,
  0x8b, 0xd1, 0xbd, 0x3c, 0xa7, 0xde, 0xd5, 0x3e, 0x20, 0xb8, 0x8c, 0x3e,
  0x35, 0x8d, 0x1e, 0xbd, 0xc4, 0xa4, 0xef, 0x3d, 0xe7, 0x89, 0x82, 0xbe,
  0x90, 0x96, 0xe1, 0x3d, 0xda, 0x4c, 0x49, 0xbb, 0xaf, 0xc5, 0x20, 0xbe,
  0x89, 0x2e, 0xb4, 0x3d, 0xd7, 0x44, 0x83, 0xbe, 0x24, 0x0d, 0x93, 0xbe,
  0xaa, 0xaf, 0xa8, 0xbc, 0x12, 0x3c, 0xfa, 0x3d, 0x66, 0x18, 0x38, 0xbe,
  0xe8, 0x7a, 0x53, 0xbd, 0xc2, 0x42, 0x6c, 0xbe, 0xc8, 0xa6, 0x0f, 0x3e,
  0x28, 0xcc, 0x0b, 0xbd, 0xc3, 0xf4, 0x16, 0x3c, 0x81, 0xe6, 0xe2, 0x3c,
  0xbd, 0xd8, 0x96, 0xbe, 0x8e, 0xe3, 0x88, 0xbe, 0x39, 0x0a, 0x81, 0x3e,
  0x16, 0x03, 0xca, 0x3d, 0x1e, 0x9d, 0x9c, 0xbe, 0xb2, 0xe0, 0x89, 0x3e,
  0x5d, 0xff, 0x28, 0x3e, 0xa6, 0x8e, 0x0a, 0x3e, 0x91, 0x6a, 0x9e, 0xbd,
  0xf5, 0x9b, 0x45, 0x3d, 0xd6, 0xe3, 0x51, 0xbe, 0xfe, 0x7f, 0x71, 0x3e,
  0x48, 0x69, 0x6c, 0x3e, 0x01, 0x87, 0x0a, 0xbe, 0x89, 0x6e, 0x99, 0xbe,
  0x8b, 0xf9, 0x37, 0x3e, 0xc8, 0xe9, 0x4a, 0x3e, 0x33, 0x9c, 0x68, 0xbe,
  0x91, 0x9c, 0x64, 0xbe, 0x24, 0x01, 0x4c, 0xbe, 0x80, 0x1d, 0x74, 0x3b,
  0x83, 0xc2, 0x5b, 0xbe, 0xe0, 0xab, 0x9e, 0xbe, 0xbc, 0x3e, 0x93, 0x3e,
  0x76, 0xcc, 0x07, 0xbe, 0x82, 0x04, 0xc1, 0xbd, 0x10, 0xda, 0x05, 0x3e,
  0x30, 0xa5, 0x23, 0xbe, 0x02, 0xaf, 0x80, 0x3e, 0x09, 0xc4, 0x2f, 0xbe,
  0xe0, 0xdb, 0x31, 0x3e, 0x18, 0x75, 0x7b, 0x3e, 0x82, 0x5e, 0x35, 0xbd,
  0x0a, 0x93, 0x4a, 0xbe, 0xac, 0x1e, 0x61, 0x3e, 0x9a, 0xbe, 0xad, 0xbd,
  0x5a, 0xf0, 0xa7, 0xbd, 0x7a, 0x53, 0x18, 0xbe, 0x60, 0x45, 0x15, 0xbe,
  0xf3, 0xf7, 0xf7, 0x3e, 0xe5, 0xe6, 0x84, 0x3e, 0x3b, 0xf0, 0xe3, 0xbe,
  0x6c, 0x11, 0xd7, 0x3d, 0x10, 0x30, 0x48, 0x3d, 0x92, 0xae, 0x91, 0x3e,
  0x35, 0x01, 0x1a, 0xbe, 0x48, 0xf9, 0x9a, 0x3e, 0x33, 0x19, 0xd4, 0xbd,
  0xd2, 0x99, 0x1e, 0xbe, 0xa8, 0xfe, 0x48, 0x3e, 0x42, 0x74, 0x5d, 0xbe,
  0x5d, 0x5f, 0xf7, 0xbd, 0x5f, 0xf6, 0x17, 0xbf, 0x37, 0xdd, 0x16, 0x3f,
  0x6a, 0x15, 0xf8, 0xbd, 0x0c, 0xa3, 0x26, 0x3f, 0xd3, 0xe2, 0xa7, 0x3e,
  0xfb, 0x7b, 0x2b, 0x3e, 0x22, 0x67, 0x20, 0x3e, 0x1a, 0x09, 0x04, 0x3c,
  0xc5, 0x2f, 0x25, 0x3f, 0x6a, 0x71, 0x29, 0xbf, 0x7f, 0x69, 0xfa, 0x3d,
  0xef, 0x0e, 0x8c, 0xbe, 0xe5, 0x85, 0x54, 0x3e, 0x53, 0x89, 0xea, 0xbe,
  0x6d, 0x82, 0x5c, 0x3f, 0x40, 0x0b, 0x59, 0x3c, 0xc0, 0xf3, 0x7f, 0x3c,
  0x01, 0x6c, 0x45, 0x3d, 0xf2, 0x61, 0xd0, 0xbc, 0x25, 0x0f, 0x3a, 0x3d,
  0x20, 0x08, 0xe1, 0xbe, 0xd0, 0x4f, 0x80, 0x3d, 0xe8, 0x72, 0xa3, 0x3e,
  0xa1, 0xd2, 0xde, 0xbe, 0xa9, 0xda, 0x5d, 0xbc, 0x3d, 0x44, 0xab, 0xbc,
  0xb3, 0x5c, 0x18, 0x3d, 0xf5, 0x47, 0x29, 0xbe, 0x9e, 0xa8, 0x64, 0x3e,
  0x90, 0x55, 0x84, 0xbe, 0x50, 0xf8, 0x44, 0xbe, 0xc0, 0x84, 0x34, 0x3d,
  0x87, 0x28, 0x99, 0xbe, 0x60, 0x96, 0xdd, 0xbd, 0xc0, 0x18, 0x67, 0x3e,
  0x1f, 0xcd, 0x97, 0x3d, 0x9f, 0x89, 0x2e, 0xbc, 0x48, 0x1c, 0x40, 0xbe,
  0xc7, 0x24, 0xaa, 0x3b, 0xdc, 0x46, 0x0a, 0xbe, 0xba, 0x66, 0xb3, 0xbb,
  0xd0, 0x5b, 0x9a, 0xbc, 0x9c, 0x66, 0x52, 0x3e, 0x36, 0xf6, 0x31, 0x3e,
  0x31, 0x34, 0x46, 0xbe, 0xf5, 0x0b, 0x3f, 0x3e, 0x6d, 0x29, 0x8c, 0x3c,
  0x7c, 0xd8, 0x96, 0x3e, 0x8a, 0xa6, 0x3e, 0xbe, 0xcb, 0xa3, 0x58, 0xbe,
  0xa6, 0x9e, 0x1c, 0xbe, 0xa9, 0x2f, 0x92, 0xbe, 0xc8, 0x17, 0x2c, 0x3e,
  0xc2, 0x4a, 0x83, 0xbe, 0x02, 0xfc, 0xb8, 0xbd, 0xa3, 0xae, 0x16, 0xbe,
  0xb8, 0x99, 0xa8, 0xbe, 0xf0, 0x56, 0x76, 0x3d, 0xae, 0x57, 0x34, 0x3e,
  0x1c, 0xcc, 0x6f, 0x3e, 0x6e, 0x7c, 0x87, 0x3e, 0x42, 0x3d, 0x7b, 0xbe,
  0x62, 0x28, 0xac, 0xbd, 0x17, 0x0b, 0x71, 0xbe, 0x25, 0x60, 0x49, 0xbe,
  0xb4, 0x9c, 0xd5, 0x3d, 0xac, 0x4b, 0x61, 0x3e, 0xfa, 0x28, 0x21, 0x3d,
  0x68, 0x12, 0x2b, 0x3d, 0xab, 0x0c, 0x4f, 0x3e, 0x56, 0x78, 0x59, 0x3d,
  0xc2, 0xd3, 0x94, 0x3e, 0x01, 0x8c, 0x20, 0xbd, 0x56, 0xac, 0x2d, 0x3d,
  0x65, 0xa8, 0x7d, 0xbe, 0x13, 0x8b, 0x39, 0x3e, 0xf0, 0x28, 0x14, 0x3e,
  0x40, 0x78, 0x06, 0x3e, 0x15, 0x5e, 0x57, 0xbc, 0x88, 0xf5, 0x1c, 0x3e,
  0xb2, 0x5b, 0x80, 0x3e, 0x9c, 0x6d, 0x5b, 0x3e, 0xde, 0x46, 0x80, 0x3e,
  0x05, 0xff, 0x6d, 0xbe, 0x7d, 0x77, 0x4f, 0xbe, 0x2d, 0x5a, 0x79, 0xbe,
  0xb0, 0xaf, 0x16, 0x3e, 0x00, 0xc0, 0x06, 0x3b, 0x1e, 0xd2, 0x12, 0xbe,
  0x0c, 0xbb, 0x86, 0x3e, 0x71, 0xed, 0x0d, 0xbe, 0x40, 0xe4, 0xb3, 0xbc,
  0x80, 0x28, 0x0a, 0xbb, 0xdc, 0xee, 0xb5, 0xbd, 0xcf, 0x32, 0x93, 0xbe,
  0x00, 0x61, 0x4c, 0x3e, 0x09, 0x9b, 0x2d, 0xbe, 0x8c, 0xcd, 0x04, 0xbe,
  0x52, 0x91, 0x11, 0x3e, 0xc9, 0x86, 0x1b, 0xbe, 0x8c, 0xa0, 0xea, 0x3d,
  0x8f, 0x2e, 0x80, 0xbe, 0x00, 0xd9, 0x7a, 0x3d, 0xbe, 0x18, 0x80, 0xbe,
  0x12, 0x6b, 0x21, 0xbe, 0x40, 0x8b, 0xbb, 0xbd, 0xc4, 0xf4, 0x50, 0x3e,
  0xd8, 0xa4, 0x19, 0x3d, 0xc6, 0x40, 0x25, 0xbe, 0x34, 0xf4, 0x72, 0xbd,
  0xc0, 0x46, 0x25, 0xbd, 0xc0, 0x01, 0xc6, 0x3b, 0xc8, 0x34, 0x7f, 0x3e,
  0xa1, 0x64, 0x12, 0xbe, 0x11, 0x50, 0x5b, 0xbe, 0x33, 0x6a, 0x6f, 0xbe,
  0x50, 0x4d, 0x0e, 0xbd, 0x86, 0xda, 0x2c, 0xbe, 0x04, 0xfe, 0x44, 0x3e,
  0x07, 0x42, 0x93, 0xbe, 0xba, 0x52, 0x37, 0x3e, 0xba, 0x99, 0x71, 0xbe,
  0x92, 0x28, 0x09, 0xbe, 0x9c, 0xad, 0x8a, 0x3d, 0x5e, 0x68, 0x75, 0xbe,
  0x1e, 0x98, 0x8b, 0xbe, 0x01, 0x91, 0x88, 0xbe, 0x69, 0xbf, 0x89, 0xbe,
  0xc5, 0x41, 0x9a, 0xbe, 0xf5, 0x5b, 0x03, 0xbd, 0x2d, 0x81, 0x87, 0xbe,
  0x40, 0xc2, 0xa3, 0x3d, 0xda, 0x84, 0x93, 0x3f, 0xbe, 0x31, 0x43, 0xbe,
  0x19, 0x2e, 0x82, 0xbe, 0x4a, 0x25, 0x0d, 0x3b, 0x02, 0xdc, 0x7e, 0x3f,
  0x1a, 0x41, 0x59, 0x3f, 0x50, 0x4a, 0xd7, 0xbe, 0x1c, 0x20, 0x7e, 0x3d,
  0x75, 0x86, 0x9f, 0xbd, 0x78, 0xbd, 0x18, 0x3e, 0x00, 0x20, 0x9e, 0x3d,
  0x3c, 0xbf, 0xc6, 0xbd, 0xe8, 0x79, 0x4b, 0x3e, 0xcb, 0xeb, 0xb0, 0xbe,
  0xc3, 0xe4, 0x8c, 0xbe, 0x20, 0xd7, 0x3c, 0xbd, 0xb4, 0x0b, 0x10, 0x3e,
  0xb8, 0x2f, 0xe7, 0xbe, 0xfc, 0x4e, 0x2c, 0x3f, 0x2a, 0xbc, 0x53, 0x3f,
  0xb5, 0x95, 0xb9, 0xbd, 0x08, 0x1e, 0x1c, 0x3f, 0xd0, 0x71, 0xb2, 0xbe,
  0xe6, 0x39, 0x40, 0x3f, 0x13, 0x98, 0x49, 0xbd, 0x87, 0xbd, 0x78, 0xbe,
  0xe2, 0x73, 0x12, 0x3f, 0x31, 0x2d, 0x27, 0x3f, 0x41, 0xe2, 0x9d, 0x3f,
  0xb6, 0x62, 0x21, 0x3f, 0x38, 0x41, 0x02, 0x3f, 0xb8, 0xf6, 0x1f, 0x3f,
  0xa9, 0x78, 0xd9, 0x3e, 0x6c, 0x88, 0x9c, 0xbd, 0x7c, 0x10, 0xaa, 0x3d,
  0xda, 0x69, 0xd5, 0xbe, 0x30, 0xa6, 0x13, 0x3e, 0xdf, 0x18, 0x96, 0xbc,
  0x37, 0x30, 0xb6, 0x3e, 0x95, 0xd1, 0x2c, 0xbe, 0xdf, 0x23, 0x89, 0xbe,
  0x0d, 0x26, 0x24, 0x3f, 0xf9, 0x02, 0x6e, 0x3d, 0x4f, 0x2e, 0x5e, 0x3f,
  0xe2, 0x1f, 0x1a, 0x3f, 0xc9, 0xa9, 0x85, 0x3f, 0x00, 0x44, 0x8e, 0xbd,
  0x6e, 0xfe, 0xff, 0xff, 0x04, 0x00, 0x00, 0x00, 0xf0, 0x00, 0x00, 0x00,
  0xe7, 0xcb, 0x2c, 0x3c, 0x66, 0xc1, 0x2b, 0xbf, 0xc9, 0x0f, 0x02, 0x3e,
  0xf5, 0xdd, 0x51, 0x3e, 0x70, 0xde, 0x94, 0xbc, 0x28, 0x76, 0xbb, 0xbd,
  0xe5, 0xaf, 0x00, 0x3e, 0xac, 0xb4, 0xc7, 0x3e, 0x29, 0xfe, 0xa3, 0xbf,
  0x7b, 0xf0, 0xc7, 0xbe, 0x80, 0xf5, 0x97, 0x3c, 0xcf, 0x09, 0x58, 0xbf,
  0xe2, 0xf0, 0xe0, 0x3e, 0x32, 0x34, 0xd4, 0x3e, 0xc6, 0xfc, 0x22, 0xbe,
  0x48, 0x26, 0x01, 0x3e, 0x99, 0x2a, 0x63, 0xbf, 0x32, 0xea, 0x19, 0x3e,
  0x67, 0x40, 0x54, 0xbf, 0xf2, 0x94, 0x5e, 0x3e, 0x38, 0x0f, 0x55, 0x3e,
  0xa4, 0x9f, 0xe9, 0xbd, 0x51, 0xc9, 0x84, 0x3e, 0x38, 0x53, 0x87, 0x3d,
  0x06, 0x5d, 0xd1, 0x3e, 0x40, 0x50, 0x0d, 0x3f, 0x75, 0x41, 0x9f, 0xbc,
  0xa7, 0x13, 0x91, 0x3e, 0x56, 0x05, 0xe6, 0x3e, 0x1e, 0xbf, 0x22, 0xc0,
  0xad, 0x2a, 0xb9, 0xbf, 0x00, 0xca, 0x97, 0x3e, 0x2f, 0xdf, 0x4e, 0xbe,
  0x38, 0xa0, 0x16, 0x3e, 0x2a, 0x56, 0xbb, 0xbf, 0xd4, 0x79, 0xcc, 0x3e,
  0x62, 0x54, 0x37, 0x3d, 0xd4, 0xf7, 0x1e, 0xbd, 0x89, 0x06, 0x4a, 0x3f,
  0x5b, 0xe3, 0xd5, 0xbf, 0x4e, 0x30, 0xee, 0xbe, 0x7c, 0xcc, 0x62, 0x3e,
  0xa2, 0xf9, 0xe2, 0x3d, 0xa0, 0xf1, 0x19, 0xbd, 0x80, 0x8d, 0xc2, 0x3e,
  0x39, 0x9a, 0x76, 0xbe, 0x50, 0x1c, 0xd8, 0x3e, 0x26, 0x4d, 0xfe, 0x3e,
  0xe0, 0x59, 0x8a, 0xbf, 0xdb, 0x6a, 0x5b, 0xbf, 0x20, 0x4e, 0xf4, 0xbe,
  0x0f, 0x12, 0xc5, 0xbf, 0xb5, 0x62, 0xcd, 0x3e, 0xd8, 0xfc, 0xec, 0xbe,
  0xf1, 0xde, 0x65, 0xbe, 0x5f, 0x43, 0x06, 0xbf, 0x3a, 0xe0, 0x50, 0x3e,
  0x7e, 0x0b, 0xbd, 0xbd, 0xc3, 0x46, 0x0c, 0x3f, 0x9a, 0xef, 0x4d, 0xbd,
  0xe0, 0xfa, 0xff, 0xff, 0xe4, 0xfa, 0xff, 0xff, 0x0f, 0x00, 0x00, 0x00,
  0x4d, 0x4c, 0x49, 0x52, 0x20, 0x43, 0x6f, 0x6e, 0x76, 0x65, 0x72, 0x74,
  0x65, 0x64, 0x2e, 0x00, 0x01, 0x00, 0x00, 0x00, 0x14, 0x00, 0x00, 0x00,
  0x00, 0x00, 0x0e, 0x00, 0x18, 0x00, 0x14, 0x00, 0x10, 0x00, 0x0c, 0x00,
  0x08, 0x00, 0x04, 0x00, 0x0e, 0x00, 0x00, 0x00, 0x14, 0x00, 0x00, 0x00,
  0x1c, 0x00, 0x00, 0x00, 0x24, 0x01, 0x00, 0x00, 0x28, 0x01, 0x00, 0x00,
  0x2c, 0x01, 0x00, 0x00, 0x04, 0x00, 0x00, 0x00, 0x6d, 0x61, 0x69, 0x6e,
  0x00, 0x00, 0x00, 0x00, 0x04, 0x00, 0x00, 0x00, 0xcc, 0x00, 0x00, 0x00,
  0x84, 0x00, 0x00, 0x00, 0x50, 0x00, 0x00, 0x00, 0x14, 0x00, 0x00, 0x00,
  0x00, 0x00, 0x0e, 0x00, 0x1a, 0x00, 0x14, 0x00, 0x10, 0x00, 0x0c, 0x00,
